{
  "version": "1.0",
  "truncation": null,
  "padding": null,
  "added_tokens": [
    {
      "id": 0,
      "content": "<|pad|>",
      "single_word": false,
      "lstrip": false,
      "rstrip": false,
      "normalized": false,
      "special": true
    },
    {
      "id": 1,
      "content": ">>ABSTRACT<<",
      "single_word": false,
      "lstrip": false,
      "rstrip": false,
      "normalized": false,
      "special": true
    },
    {
      "id": 2,
      "content": ">>INTRODUCTION<<",
      "single_word": false,
      "lstrip": false,
      "rstrip": false,
      "normalized": false,
      "special": true
    },
    {
      "id": 3,
      "content": ">>SUMMARY<<",
      "single_word": false,
      "lstrip": false,
      "rstrip": false,
      "normalized": false,
      "special": true
    },
    {
      "id": 4,
      "content": ">>COMMENT<<",
      "single_word": false,
      "lstrip": false,
      "rstrip": false,
      "normalized": false,
      "special": true
    },
    {
      "id": 5,
      "content": ">>ANSWER<<",
      "single_word": false,
      "lstrip": false,
      "rstrip": false,
      "normalized": false,
      "special": true
    },
    {
      "id": 6,
      "content": ">>QUESTION<<",
      "single_word": false,
      "lstrip": false,
      "rstrip": false,
      "normalized": false,
      "special": true
    },
    {
      "id": 7,
      "content": ">>DOMAIN<<",
      "single_word": false,
      "lstrip": false,
      "rstrip": false,
      "normalized": false,
      "special": true
    },
    {
      "id": 8,
      "content": ">>PREFIX<<",
      "single_word": false,
      "lstrip": false,
      "rstrip": false,
      "normalized": false,
      "special": true
    },
    {
      "id": 9,
      "content": ">>SUFFIX<<",
      "single_word": false,
      "lstrip": false,
      "rstrip": false,
      "normalized": false,
      "special": true
    },
    {
      "id": 10,
      "content": ">>MIDDLE<<",
      "single_word": false,
      "lstrip": false,
      "rstrip": false,
      "normalized": false,
      "special": true
    },
    {
      "id": 11,
      "content": "<|end_of_text|>",
      "single_word": false,
      "lstrip": false,
      "rstrip": false,
      "normalized": false,
      "special": true
    },
    {
      "id": 12,
      "content": "<|finetune_right_pad_id|>",
      "single_word": false,
      "lstrip": false,
      "rstrip": false,
      "normalized": false,
      "special": true
    },
    {
      "id": 13,
      "content": "<|start_header_id|>",
      "single_word": false,
      "lstrip": false,
      "rstrip": false,
      "normalized": false,
      "special": true
    },
    {
      "id": 14,
      "content": "<|end_header_id|>",
      "single_word": false,
      "lstrip": false,
      "rstrip": false,
      "normalized": false,
      "special": true
    },
    {
      "id": 15,
      "content": "<|eom_id|>",
      "single_word": false,
      "lstrip": false,
      "rstrip": false,
      "normalized": false,
      "special": true
    },
    {
      "id": 16,
      "content": "<|eot_id|>",
      "single_word": false,
      "lstrip": false,
      "rstrip": false,
      "normalized": false,
      "special": true
    },
    {
      "id": 17,
      "content": "<|begin_of_text|>",
      "single_word": false,
      "lstrip": false,
      "rstrip": false,
      "normalized": false,
      "special": true
    },
    {
      "id": 18,
      "content": ">>TITLE<<",
      "single_word": false,
      "lstrip": false,
      "rstrip": false,
      "normalized": false,
      "special": true
    },
    {
      "id": 19,
      "content": "<tool_response>",
      "single_word": false,
      "lstrip": false,
      "rstrip": false,
      "normalized": false,
      "special": true
    },
    {
      "id": 20,
      "content": "</tool_response>",
      "single_word": false,
      "lstrip": false,
      "rstrip": false,
      "normalized": false,
      "special": true
    },
    {
      "id": 21,
      "content": "<tool_call>",
      "single_word": false,
      "lstrip": false,
      "rstrip": false,
      "normalized": false,
      "special": true
    },
    {
      "id": 22,
      "content": "</tool_call>",
      "single_word": false,
      "lstrip": false,
      "rstrip": false,
      "normalized": false,
      "special": true
    },
    {
      "id": 23,
      "content": "<schema>",
      "single_word": false,
      "lstrip": false,
      "rstrip": false,
      "normalized": false,
      "special": true
    },
    {
      "id": 24,
      "content": "</schema>",
      "single_word": false,
      "lstrip": false,
      "rstrip": false,
      "normalized": false,
      "special": true
    },
    {
      "id": 25,
      "content": "<scratch_pad>",
      "single_word": false,
      "lstrip": false,
      "rstrip": false,
      "normalized": false,
      "special": true
    },
    {
      "id": 26,
      "content": "</scratch_pad>",
      "single_word": false,
      "lstrip": false,
      "rstrip": false,
      "normalized": false,
      "special": true
    },
    {
      "id": 27,
      "content": "<thinking>",
      "single_word": false,
      "lstrip": false,
      "rstrip": false,
      "normalized": false,
      "special": true
    },
    {
      "id": 28,
      "content": "</thinking>",
      "single_word": false,
      "lstrip": false,
      "rstrip": false,
      "normalized": false,
      "special": true
    },
    {
      "id": 29,
      "content": "<explanation>",
      "single_word": false,
      "lstrip": false,
      "rstrip": false,
      "normalized": false,
      "special": true
    },
    {
      "id": 30,
      "content": "</explanation>",
      "single_word": false,
      "lstrip": false,
      "rstrip": false,
      "normalized": false,
      "special": true
    },
    {
      "id": 31,
      "content": "<file_sep>",
      "single_word": false,
      "lstrip": false,
      "rstrip": false,
      "normalized": false,
      "special": true
    },
    {
      "id": 32,
      "content": "<repo_name>",
      "single_word": false,
      "lstrip": false,
      "rstrip": false,
      "normalized": false,
      "special": true
    },
    {
      "id": 33,
      "content": "\\blindtext",
      "single_word": false,
      "lstrip": false,
      "rstrip": false,
      "normalized": false,
      "special": false
    },
    {
      "id": 34,
      "content": "\\newpage",
      "single_word": false,
      "lstrip": false,
      "rstrip": false,
      "normalized": false,
      "special": false
    },
    {
      "id": 35,
      "content": "\\boxed",
      "single_word": false,
      "lstrip": false,
      "rstrip": false,
      "normalized": false,
      "special": false
    },
    {
      "id": 36,
      "content": "\\framebox",
      "single_word": false,
      "lstrip": false,
      "rstrip": false,
      "normalized": false,
      "special": false
    },
    {
      "id": 37,
      "content": "\\fbox",
      "single_word": false,
      "lstrip": false,
      "rstrip": false,
      "normalized": false,
      "special": false
    },
    {
      "id": 38,
      "content": "\\tag",
      "single_word": false,
      "lstrip": false,
      "rstrip": false,
      "normalized": false,
      "special": false
    },
    {
      "id": 39,
      "content": "\\nonumber",
      "single_word": false,
      "lstrip": false,
      "rstrip": false,
      "normalized": false,
      "special": false
    },
    {
      "id": 40,
      "content": "\\item",
      "single_word": false,
      "lstrip": false,
      "rstrip": false,
      "normalized": false,
      "special": false
    },
    {
      "id": 41,
      "content": "\\centering",
      "single_word": false,
      "lstrip": false,
      "rstrip": false,
      "normalized": false,
      "special": false
    },
    {
      "id": 42,
      "content": "\\caption",
      "single_word": false,
      "lstrip": false,
      "rstrip": false,
      "normalized": false,
      "special": false
    },
    {
      "id": 43,
      "content": "\\includegraphics",
      "single_word": false,
      "lstrip": false,
      "rstrip": false,
      "normalized": false,
      "special": false
    },
    {
      "id": 44,
      "content": "\\label",
      "single_word": false,
      "lstrip": false,
      "rstrip": false,
      "normalized": false,
      "special": false
    },
    {
      "id": 45,
      "content": "\\multicolumn",
      "single_word": false,
      "lstrip": false,
      "rstrip": false,
      "normalized": false,
      "special": false
    },
    {
      "id": 46,
      "content": "\\cline",
      "single_word": false,
      "lstrip": false,
      "rstrip": false,
      "normalized": false,
      "special": false
    },
    {
      "id": 47,
      "content": "\\hline",
      "single_word": false,
      "lstrip": false,
      "rstrip": false,
      "normalized": false,
      "special": false
    },
    {
      "id": 48,
      "content": "\\end",
      "single_word": false,
      "lstrip": false,
      "rstrip": false,
      "normalized": false,
      "special": false
    },
    {
      "id": 49,
      "content": "\\begin",
      "single_word": false,
      "lstrip": false,
      "rstrip": false,
      "normalized": false,
      "special": false
    },
    {
      "id": 50,
      "content": "\\tableofcontents",
      "single_word": false,
      "lstrip": false,
      "rstrip": false,
      "normalized": false,
      "special": false
    },
    {
      "id": 51,
      "content": "\\maketitle",
      "single_word": false,
      "lstrip": false,
      "rstrip": false,
      "normalized": false,
      "special": false
    },
    {
      "id": 52,
      "content": "\\date",
      "single_word": false,
      "lstrip": false,
      "rstrip": false,
      "normalized": false,
      "special": false
    },
    {
      "id": 53,
      "content": "\\author",
      "single_word": false,
      "lstrip": false,
      "rstrip": false,
      "normalized": false,
      "special": false
    },
    {
      "id": 54,
      "content": "\\title",
      "single_word": false,
      "lstrip": false,
      "rstrip": false,
      "normalized": false,
      "special": false
    },
    {
      "id": 55,
      "content": "\\chapter",
      "single_word": false,
      "lstrip": false,
      "rstrip": false,
      "normalized": false,
      "special": false
    },
    {
      "id": 56,
      "content": "\\subsubsection",
      "single_word": false,
      "lstrip": false,
      "rstrip": false,
      "normalized": false,
      "special": false
    },
    {
      "id": 57,
      "content": "\\subsection",
      "single_word": false,
      "lstrip": false,
      "rstrip": false,
      "normalized": false,
      "special": false
    },
    {
      "id": 58,
      "content": "\\section",
      "single_word": false,
      "lstrip": false,
      "rstrip": false,
      "normalized": false,
      "special": false
    },
    {
      "id": 59,
      "content": "\\noindent",
      "single_word": false,
      "lstrip": false,
      "rstrip": false,
      "normalized": false,
      "special": false
    },
    {
      "id": 60,
      "content": "\\newline",
      "single_word": false,
      "lstrip": false,
      "rstrip": false,
      "normalized": false,
      "special": false
    },
    {
      "id": 61,
      "content": "\\par",
      "single_word": false,
      "lstrip": false,
      "rstrip": false,
      "normalized": false,
      "special": false
    },
    {
      "id": 62,
      "content": "\\ddot",
      "single_word": false,
      "lstrip": false,
      "rstrip": false,
      "normalized": false,
      "special": false
    },
    {
      "id": 63,
      "content": "\\dot",
      "single_word": false,
      "lstrip": false,
      "rstrip": false,
      "normalized": false,
      "special": false
    },
    {
      "id": 64,
      "content": "\\bar",
      "single_word": false,
      "lstrip": false,
      "rstrip": false,
      "normalized": false,
      "special": false
    },
    {
      "id": 65,
      "content": "\\iff",
      "single_word": false,
      "lstrip": false,
      "rstrip": false,
      "normalized": false,
      "special": false
    },
    {
      "id": 66,
      "content": "\\implies",
      "single_word": false,
      "lstrip": false,
      "rstrip": false,
      "normalized": false,
      "special": false
    },
    {
      "id": 67,
      "content": "\\neg",
      "single_word": false,
      "lstrip": false,
      "rstrip": false,
      "normalized": false,
      "special": false
    },
    {
      "id": 68,
      "content": "\\lor",
      "single_word": false,
      "lstrip": false,
      "rstrip": false,
      "normalized": false,
      "special": false
    },
    {
      "id": 69,
      "content": "\\land",
      "single_word": false,
      "lstrip": false,
      "rstrip": false,
      "normalized": false,
      "special": false
    },
    {
      "id": 70,
      "content": "\\qquad",
      "single_word": false,
      "lstrip": false,
      "rstrip": false,
      "normalized": false,
      "special": false
    },
    {
      "id": 71,
      "content": "\\quad",
      "single_word": false,
      "lstrip": false,
      "rstrip": false,
      "normalized": false,
      "special": false
    },
    {
      "id": 72,
      "content": "\\arctan",
      "single_word": false,
      "lstrip": false,
      "rstrip": false,
      "normalized": false,
      "special": false
    },
    {
      "id": 73,
      "content": "\\arccos",
      "single_word": false,
      "lstrip": false,
      "rstrip": false,
      "normalized": false,
      "special": false
    },
    {
      "id": 74,
      "content": "\\arcsin",
      "single_word": false,
      "lstrip": false,
      "rstrip": false,
      "normalized": false,
      "special": false
    },
    {
      "id": 75,
      "content": "\\cot",
      "single_word": false,
      "lstrip": false,
      "rstrip": false,
      "normalized": false,
      "special": false
    },
    {
      "id": 76,
      "content": "\\sec",
      "single_word": false,
      "lstrip": false,
      "rstrip": false,
      "normalized": false,
      "special": false
    },
    {
      "id": 77,
      "content": "\\csc",
      "single_word": false,
      "lstrip": false,
      "rstrip": false,
      "normalized": false,
      "special": false
    },
    {
      "id": 78,
      "content": "\\tan",
      "single_word": false,
      "lstrip": false,
      "rstrip": false,
      "normalized": false,
      "special": false
    },
    {
      "id": 79,
      "content": "\\cos",
      "single_word": false,
      "lstrip": false,
      "rstrip": false,
      "normalized": false,
      "special": false
    },
    {
      "id": 80,
      "content": "\\sin",
      "single_word": false,
      "lstrip": false,
      "rstrip": false,
      "normalized": false,
      "special": false
    },
    {
      "id": 81,
      "content": "\\widetilde",
      "single_word": false,
      "lstrip": false,
      "rstrip": false,
      "normalized": false,
      "special": false
    },
    {
      "id": 82,
      "content": "\\widehat",
      "single_word": false,
      "lstrip": false,
      "rstrip": false,
      "normalized": false,
      "special": false
    },
    {
      "id": 83,
      "content": "\\complement",
      "single_word": false,
      "lstrip": false,
      "rstrip": false,
      "normalized": false,
      "special": false
    },
    {
      "id": 84,
      "content": "\\varnothing",
      "single_word": false,
      "lstrip": false,
      "rstrip": false,
      "normalized": false,
      "special": false
    },
    {
      "id": 85,
      "content": "\\tilde",
      "single_word": false,
      "lstrip": false,
      "rstrip": false,
      "normalized": false,
      "special": false
    },
    {
      "id": 86,
      "content": "\\hat",
      "single_word": false,
      "lstrip": false,
      "rstrip": false,
      "normalized": false,
      "special": false
    },
    {
      "id": 87,
      "content": "\\vec",
      "single_word": false,
      "lstrip": false,
      "rstrip": false,
      "normalized": false,
      "special": false
    },
    {
      "id": 88,
      "content": "\\mathfrak",
      "single_word": false,
      "lstrip": false,
      "rstrip": false,
      "normalized": false,
      "special": false
    },
    {
      "id": 89,
      "content": "\\mathcal",
      "single_word": false,
      "lstrip": false,
      "rstrip": false,
      "normalized": false,
      "special": false
    },
    {
      "id": 90,
      "content": "\\mathbb",
      "single_word": false,
      "lstrip": false,
      "rstrip": false,
      "normalized": false,
      "special": false
    },
    {
      "id": 91,
      "content": "\\emptyset",
      "single_word": false,
      "lstrip": false,
      "rstrip": false,
      "normalized": false,
      "special": false
    },
    {
      "id": 92,
      "content": "\\bot",
      "single_word": false,
      "lstrip": false,
      "rstrip": false,
      "normalized": false,
      "special": false
    },
    {
      "id": 93,
      "content": "\\aleph",
      "single_word": false,
      "lstrip": false,
      "rstrip": false,
      "normalized": false,
      "special": false
    },
    {
      "id": 94,
      "content": "\\Re",
      "single_word": false,
      "lstrip": false,
      "rstrip": false,
      "normalized": false,
      "special": false
    },
    {
      "id": 95,
      "content": "\\Im",
      "single_word": false,
      "lstrip": false,
      "rstrip": false,
      "normalized": false,
      "special": false
    },
    {
      "id": 96,
      "content": "\\ell",
      "single_word": false,
      "lstrip": false,
      "rstrip": false,
      "normalized": false,
      "special": false
    },
    {
      "id": 97,
      "content": "\\hbar",
      "single_word": false,
      "lstrip": false,
      "rstrip": false,
      "normalized": false,
      "special": false
    },
    {
      "id": 98,
      "content": "\\exists",
      "single_word": false,
      "lstrip": false,
      "rstrip": false,
      "normalized": false,
      "special": false
    },
    {
      "id": 99,
      "content": "\\forall",
      "single_word": false,
      "lstrip": false,
      "rstrip": false,
      "normalized": false,
      "special": false
    },
    {
      "id": 100,
      "content": "\\partial",
      "single_word": false,
      "lstrip": false,
      "rstrip": false,
      "normalized": false,
      "special": false
    },
    {
      "id": 101,
      "content": "\\nabla",
      "single_word": false,
      "lstrip": false,
      "rstrip": false,
      "normalized": false,
      "special": false
    },
    {
      "id": 102,
      "content": "\\infty",
      "single_word": false,
      "lstrip": false,
      "rstrip": false,
      "normalized": false,
      "special": false
    },
    {
      "id": 103,
      "content": "\\binom",
      "single_word": false,
      "lstrip": false,
      "rstrip": false,
      "normalized": false,
      "special": false
    },
    {
      "id": 104,
      "content": "\\overline",
      "single_word": false,
      "lstrip": false,
      "rstrip": false,
      "normalized": false,
      "special": false
    },
    {
      "id": 105,
      "content": "\\sqrt",
      "single_word": false,
      "lstrip": false,
      "rstrip": false,
      "normalized": false,
      "special": false
    },
    {
      "id": 106,
      "content": "\\tfrac",
      "single_word": false,
      "lstrip": false,
      "rstrip": false,
      "normalized": false,
      "special": false
    },
    {
      "id": 107,
      "content": "\\dfrac",
      "single_word": false,
      "lstrip": false,
      "rstrip": false,
      "normalized": false,
      "special": false
    },
    {
      "id": 108,
      "content": "\\frac",
      "single_word": false,
      "lstrip": false,
      "rstrip": false,
      "normalized": false,
      "special": false
    },
    {
      "id": 109,
      "content": "\\textsc",
      "single_word": false,
      "lstrip": false,
      "rstrip": false,
      "normalized": false,
      "special": false
    },
    {
      "id": 110,
      "content": "\\textsf",
      "single_word": false,
      "lstrip": false,
      "rstrip": false,
      "normalized": false,
      "special": false
    },
    {
      "id": 111,
      "content": "\\texttt",
      "single_word": false,
      "lstrip": false,
      "rstrip": false,
      "normalized": false,
      "special": false
    },
    {
      "id": 112,
      "content": "\\emph",
      "single_word": false,
      "lstrip": false,
      "rstrip": false,
      "normalized": false,
      "special": false
    },
    {
      "id": 113,
      "content": "\\underline",
      "single_word": false,
      "lstrip": false,
      "rstrip": false,
      "normalized": false,
      "special": false
    },
    {
      "id": 114,
      "content": "\\textit",
      "single_word": false,
      "lstrip": false,
      "rstrip": false,
      "normalized": false,
      "special": false
    },
    {
      "id": 115,
      "content": "\\textbf",
      "single_word": false,
      "lstrip": false,
      "rstrip": false,
      "normalized": false,
      "special": false
    },
    {
      "id": 116,
      "content": "\\bigoplus",
      "single_word": false,
      "lstrip": false,
      "rstrip": false,
      "normalized": false,
      "special": false
    },
    {
      "id": 117,
      "content": "\\bigcap",
      "single_word": false,
      "lstrip": false,
      "rstrip": false,
      "normalized": false,
      "special": false
    },
    {
      "id": 118,
      "content": "\\bigcup",
      "single_word": false,
      "lstrip": false,
      "rstrip": false,
      "normalized": false,
      "special": false
    },
    {
      "id": 119,
      "content": "\\prod",
      "single_word": false,
      "lstrip": false,
      "rstrip": false,
      "normalized": false,
      "special": false
    },
    {
      "id": 120,
      "content": "\\sum",
      "single_word": false,
      "lstrip": false,
      "rstrip": false,
      "normalized": false,
      "special": false
    },
    {
      "id": 121,
      "content": "\\oint",
      "single_word": false,
      "lstrip": false,
      "rstrip": false,
      "normalized": false,
      "special": false
    },
    {
      "id": 122,
      "content": "\\iiint",
      "single_word": false,
      "lstrip": false,
      "rstrip": false,
      "normalized": false,
      "special": false
    },
    {
      "id": 123,
      "content": "\\iint",
      "single_word": false,
      "lstrip": false,
      "rstrip": false,
      "normalized": false,
      "special": false
    },
    {
      "id": 124,
      "content": "\\int",
      "single_word": false,
      "lstrip": false,
      "rstrip": false,
      "normalized": false,
      "special": false
    },
    {
      "id": 125,
      "content": "\\right",
      "single_word": false,
      "lstrip": false,
      "rstrip": false,
      "normalized": false,
      "special": false
    },
    {
      "id": 126,
      "content": "\\left",
      "single_word": false,
      "lstrip": false,
      "rstrip": false,
      "normalized": false,
      "special": false
    },
    {
      "id": 127,
      "content": "\\Bigr",
      "single_word": false,
      "lstrip": false,
      "rstrip": false,
      "normalized": false,
      "special": false
    },
    {
      "id": 128,
      "content": "\\Bigl",
      "single_word": false,
      "lstrip": false,
      "rstrip": false,
      "normalized": false,
      "special": false
    },
    {
      "id": 129,
      "content": "\\bigr",
      "single_word": false,
      "lstrip": false,
      "rstrip": false,
      "normalized": false,
      "special": false
    },
    {
      "id": 130,
      "content": "\\bigl",
      "single_word": false,
      "lstrip": false,
      "rstrip": false,
      "normalized": false,
      "special": false
    },
    {
      "id": 131,
      "content": ">>UNUSED_119<<",
      "single_word": false,
      "lstrip": false,
      "rstrip": false,
      "normalized": false,
      "special": true
    },
    {
      "id": 132,
      "content": ">>UNUSED_120<<",
      "single_word": false,
      "lstrip": false,
      "rstrip": false,
      "normalized": false,
      "special": true
    },
    {
      "id": 133,
      "content": "\\rceil",
      "single_word": false,
      "lstrip": false,
      "rstrip": false,
      "normalized": false,
      "special": false
    },
    {
      "id": 134,
      "content": "\\lceil",
      "single_word": false,
      "lstrip": false,
      "rstrip": false,
      "normalized": false,
      "special": false
    },
    {
      "id": 135,
      "content": "\\rfloor",
      "single_word": false,
      "lstrip": false,
      "rstrip": false,
      "normalized": false,
      "special": false
    },
    {
      "id": 136,
      "content": "\\lfloor",
      "single_word": false,
      "lstrip": false,
      "rstrip": false,
      "normalized": false,
      "special": false
    },
    {
      "id": 137,
      "content": "\\rangle",
      "single_word": false,
      "lstrip": false,
      "rstrip": false,
      "normalized": false,
      "special": false
    },
    {
      "id": 138,
      "content": "\\langle",
      "single_word": false,
      "lstrip": false,
      "rstrip": false,
      "normalized": false,
      "special": false
    },
    {
      "id": 139,
      "content": "\\overleftarrow",
      "single_word": false,
      "lstrip": false,
      "rstrip": false,
      "normalized": false,
      "special": false
    },
    {
      "id": 140,
      "content": "\\overleftrightarrow",
      "single_word": false,
      "lstrip": false,
      "rstrip": false,
      "normalized": false,
      "special": false
    },
    {
      "id": 141,
      "content": "\\overrightarrow",
      "single_word": false,
      "lstrip": false,
      "rstrip": false,
      "normalized": false,
      "special": false
    },
    {
      "id": 142,
      "content": "\\Longleftrightarrow",
      "single_word": false,
      "lstrip": false,
      "rstrip": false,
      "normalized": false,
      "special": false
    },
    {
      "id": 143,
      "content": "\\longleftrightarrow",
      "single_word": false,
      "lstrip": false,
      "rstrip": false,
      "normalized": false,
      "special": false
    },
    {
      "id": 144,
      "content": "\\longrightarrow",
      "single_word": false,
      "lstrip": false,
      "rstrip": false,
      "normalized": false,
      "special": false
    },
    {
      "id": 145,
      "content": "\\longleftarrow",
      "single_word": false,
      "lstrip": false,
      "rstrip": false,
      "normalized": false,
      "special": false
    },
    {
      "id": 146,
      "content": "\\Longrightarrow",
      "single_word": false,
      "lstrip": false,
      "rstrip": false,
      "normalized": false,
      "special": false
    },
    {
      "id": 147,
      "content": "\\Longleftarrow",
      "single_word": false,
      "lstrip": false,
      "rstrip": false,
      "normalized": false,
      "special": false
    },
    {
      "id": 148,
      "content": "\\gets",
      "single_word": false,
      "lstrip": false,
      "rstrip": false,
      "normalized": false,
      "special": false
    },
    {
      "id": 149,
      "content": "\\to",
      "single_word": false,
      "lstrip": false,
      "rstrip": false,
      "normalized": false,
      "special": false
    },
    {
      "id": 150,
      "content": "\\mapsto",
      "single_word": false,
      "lstrip": false,
      "rstrip": false,
      "normalized": false,
      "special": false
    },
    {
      "id": 151,
      "content": "\\Updownarrow",
      "single_word": false,
      "lstrip": false,
      "rstrip": false,
      "normalized": false,
      "special": false
    },
    {
      "id": 152,
      "content": "\\Downarrow",
      "single_word": false,
      "lstrip": false,
      "rstrip": false,
      "normalized": false,
      "special": false
    },
    {
      "id": 153,
      "content": "\\Uparrow",
      "single_word": false,
      "lstrip": false,
      "rstrip": false,
      "normalized": false,
      "special": false
    },
    {
      "id": 154,
      "content": "\\updownarrow",
      "single_word": false,
      "lstrip": false,
      "rstrip": false,
      "normalized": false,
      "special": false
    },
    {
      "id": 155,
      "content": "\\downarrow",
      "single_word": false,
      "lstrip": false,
      "rstrip": false,
      "normalized": false,
      "special": false
    },
    {
      "id": 156,
      "content": "\\uparrow",
      "single_word": false,
      "lstrip": false,
      "rstrip": false,
      "normalized": false,
      "special": false
    },
    {
      "id": 157,
      "content": "\\Leftrightarrow",
      "single_word": false,
      "lstrip": false,
      "rstrip": false,
      "normalized": false,
      "special": false
    },
    {
      "id": 158,
      "content": "\\Rightarrow",
      "single_word": false,
      "lstrip": false,
      "rstrip": false,
      "normalized": false,
      "special": false
    },
    {
      "id": 159,
      "content": "\\Leftarrow",
      "single_word": false,
      "lstrip": false,
      "rstrip": false,
      "normalized": false,
      "special": false
    },
    {
      "id": 160,
      "content": "\\leftrightarrow",
      "single_word": false,
      "lstrip": false,
      "rstrip": false,
      "normalized": false,
      "special": false
    },
    {
      "id": 161,
      "content": "\\rightarrow",
      "single_word": false,
      "lstrip": false,
      "rstrip": false,
      "normalized": false,
      "special": false
    },
    {
      "id": 162,
      "content": "\\leftarrow",
      "single_word": false,
      "lstrip": false,
      "rstrip": false,
      "normalized": false,
      "special": false
    },
    {
      "id": 163,
      "content": "\\perp",
      "single_word": false,
      "lstrip": false,
      "rstrip": false,
      "normalized": false,
      "special": false
    },
    {
      "id": 164,
      "content": "\\propto",
      "single_word": false,
      "lstrip": false,
      "rstrip": false,
      "normalized": false,
      "special": false
    },
    {
      "id": 165,
      "content": "\\ni",
      "single_word": false,
      "lstrip": false,
      "rstrip": false,
      "normalized": false,
      "special": false
    },
    {
      "id": 166,
      "content": "\\notin",
      "single_word": false,
      "lstrip": false,
      "rstrip": false,
      "normalized": false,
      "special": false
    },
    {
      "id": 167,
      "content": "\\in",
      "single_word": false,
      "lstrip": false,
      "rstrip": false,
      "normalized": false,
      "special": false
    },
    {
      "id": 168,
      "content": "\\supseteq",
      "single_word": false,
      "lstrip": false,
      "rstrip": false,
      "normalized": false,
      "special": false
    },
    {
      "id": 169,
      "content": "\\supset",
      "single_word": false,
      "lstrip": false,
      "rstrip": false,
      "normalized": false,
      "special": false
    },
    {
      "id": 170,
      "content": "\\sqsupseteq",
      "single_word": false,
      "lstrip": false,
      "rstrip": false,
      "normalized": false,
      "special": false
    },
    {
      "id": 171,
      "content": "\\sqsubseteq",
      "single_word": false,
      "lstrip": false,
      "rstrip": false,
      "normalized": false,
      "special": false
    },
    {
      "id": 172,
      "content": "\\subseteq",
      "single_word": false,
      "lstrip": false,
      "rstrip": false,
      "normalized": false,
      "special": false
    },
    {
      "id": 173,
      "content": "\\subset",
      "single_word": false,
      "lstrip": false,
      "rstrip": false,
      "normalized": false,
      "special": false
    },
    {
      "id": 174,
      "content": "\\cong",
      "single_word": false,
      "lstrip": false,
      "rstrip": false,
      "normalized": false,
      "special": false
    },
    {
      "id": 175,
      "content": "\\approx",
      "single_word": false,
      "lstrip": false,
      "rstrip": false,
      "normalized": false,
      "special": false
    },
    {
      "id": 176,
      "content": "\\simeq",
      "single_word": false,
      "lstrip": false,
      "rstrip": false,
      "normalized": false,
      "special": false
    },
    {
      "id": 177,
      "content": "\\sim",
      "single_word": false,
      "lstrip": false,
      "rstrip": false,
      "normalized": false,
      "special": false
    },
    {
      "id": 178,
      "content": "\\equiv",
      "single_word": false,
      "lstrip": false,
      "rstrip": false,
      "normalized": false,
      "special": false
    },
    {
      "id": 179,
      "content": "\\neq",
      "single_word": false,
      "lstrip": false,
      "rstrip": false,
      "normalized": false,
      "special": false
    },
    {
      "id": 180,
      "content": "\\geq",
      "single_word": false,
      "lstrip": false,
      "rstrip": false,
      "normalized": false,
      "special": false
    },
    {
      "id": 181,
      "content": "\\leq",
      "single_word": false,
      "lstrip": false,
      "rstrip": false,
      "normalized": false,
      "special": false
    },
    {
      "id": 182,
      "content": "\\oslash",
      "single_word": false,
      "lstrip": false,
      "rstrip": false,
      "normalized": false,
      "special": false
    },
    {
      "id": 183,
      "content": "\\otimes",
      "single_word": false,
      "lstrip": false,
      "rstrip": false,
      "normalized": false,
      "special": false
    },
    {
      "id": 184,
      "content": "\\ominus",
      "single_word": false,
      "lstrip": false,
      "rstrip": false,
      "normalized": false,
      "special": false
    },
    {
      "id": 185,
      "content": "\\oplus",
      "single_word": false,
      "lstrip": false,
      "rstrip": false,
      "normalized": false,
      "special": false
    },
    {
      "id": 186,
      "content": "\\wedge",
      "single_word": false,
      "lstrip": false,
      "rstrip": false,
      "normalized": false,
      "special": false
    },
    {
      "id": 187,
      "content": "\\vee",
      "single_word": false,
      "lstrip": false,
      "rstrip": false,
      "normalized": false,
      "special": false
    },
    {
      "id": 188,
      "content": "\\sqcup",
      "single_word": false,
      "lstrip": false,
      "rstrip": false,
      "normalized": false,
      "special": false
    },
    {
      "id": 189,
      "content": "\\sqcap",
      "single_word": false,
      "lstrip": false,
      "rstrip": false,
      "normalized": false,
      "special": false
    },
    {
      "id": 190,
      "content": "\\uplus",
      "single_word": false,
      "lstrip": false,
      "rstrip": false,
      "normalized": false,
      "special": false
    },
    {
      "id": 191,
      "content": "\\cup",
      "single_word": false,
      "lstrip": false,
      "rstrip": false,
      "normalized": false,
      "special": false
    },
    {
      "id": 192,
      "content": "\\cap",
      "single_word": false,
      "lstrip": false,
      "rstrip": false,
      "normalized": false,
      "special": false
    },
    {
      "id": 193,
      "content": "\\cdot",
      "single_word": false,
      "lstrip": false,
      "rstrip": false,
      "normalized": false,
      "special": false
    },
    {
      "id": 194,
      "content": "\\bullet",
      "single_word": false,
      "lstrip": false,
      "rstrip": false,
      "normalized": false,
      "special": false
    },
    {
      "id": 195,
      "content": "\\circ",
      "single_word": false,
      "lstrip": false,
      "rstrip": false,
      "normalized": false,
      "special": false
    },
    {
      "id": 196,
      "content": "\\star",
      "single_word": false,
      "lstrip": false,
      "rstrip": false,
      "normalized": false,
      "special": false
    },
    {
      "id": 197,
      "content": "\\ast",
      "single_word": false,
      "lstrip": false,
      "rstrip": false,
      "normalized": false,
      "special": false
    },
    {
      "id": 198,
      "content": "\\div",
      "single_word": false,
      "lstrip": false,
      "rstrip": false,
      "normalized": false,
      "special": false
    },
    {
      "id": 199,
      "content": "\\times",
      "single_word": false,
      "lstrip": false,
      "rstrip": false,
      "normalized": false,
      "special": false
    },
    {
      "id": 200,
      "content": "\\mp",
      "single_word": false,
      "lstrip": false,
      "rstrip": false,
      "normalized": false,
      "special": false
    },
    {
      "id": 201,
      "content": "\\pm",
      "single_word": false,
      "lstrip": false,
      "rstrip": false,
      "normalized": false,
      "special": false
    },
    {
      "id": 202,
      "content": "\\omega",
      "single_word": false,
      "lstrip": false,
      "rstrip": false,
      "normalized": false,
      "special": false
    },
    {
      "id": 203,
      "content": "\\psi",
      "single_word": false,
      "lstrip": false,
      "rstrip": false,
      "normalized": false,
      "special": false
    },
    {
      "id": 204,
      "content": "\\chi",
      "single_word": false,
      "lstrip": false,
      "rstrip": false,
      "normalized": false,
      "special": false
    },
    {
      "id": 205,
      "content": "\\varphi",
      "single_word": false,
      "lstrip": false,
      "rstrip": false,
      "normalized": false,
      "special": false
    },
    {
      "id": 206,
      "content": "\\varsigma",
      "single_word": false,
      "lstrip": false,
      "rstrip": false,
      "normalized": false,
      "special": false
    },
    {
      "id": 207,
      "content": "\\phi",
      "single_word": false,
      "lstrip": false,
      "rstrip": false,
      "normalized": false,
      "special": false
    },
    {
      "id": 208,
      "content": "\\upsilon",
      "single_word": false,
      "lstrip": false,
      "rstrip": false,
      "normalized": false,
      "special": false
    },
    {
      "id": 209,
      "content": "\\tau",
      "single_word": false,
      "lstrip": false,
      "rstrip": false,
      "normalized": false,
      "special": false
    },
    {
      "id": 210,
      "content": "\\sigma",
      "single_word": false,
      "lstrip": false,
      "rstrip": false,
      "normalized": false,
      "special": false
    },
    {
      "id": 211,
      "content": "\\rho",
      "single_word": false,
      "lstrip": false,
      "rstrip": false,
      "normalized": false,
      "special": false
    },
    {
      "id": 212,
      "content": "\\pi",
      "single_word": false,
      "lstrip": false,
      "rstrip": false,
      "normalized": false,
      "special": false
    },
    {
      "id": 213,
      "content": "\\xi",
      "single_word": false,
      "lstrip": false,
      "rstrip": false,
      "normalized": false,
      "special": false
    },
    {
      "id": 214,
      "content": "\\nu",
      "single_word": false,
      "lstrip": false,
      "rstrip": false,
      "normalized": false,
      "special": false
    },
    {
      "id": 215,
      "content": "\\mu",
      "single_word": false,
      "lstrip": false,
      "rstrip": false,
      "normalized": false,
      "special": false
    },
    {
      "id": 216,
      "content": "\\lambda",
      "single_word": false,
      "lstrip": false,
      "rstrip": false,
      "normalized": false,
      "special": false
    },
    {
      "id": 217,
      "content": "\\kappa",
      "single_word": false,
      "lstrip": false,
      "rstrip": false,
      "normalized": false,
      "special": false
    },
    {
      "id": 218,
      "content": "\\iota",
      "single_word": false,
      "lstrip": false,
      "rstrip": false,
      "normalized": false,
      "special": false
    },
    {
      "id": 219,
      "content": "\\theta",
      "single_word": false,
      "lstrip": false,
      "rstrip": false,
      "normalized": false,
      "special": false
    },
    {
      "id": 220,
      "content": "\\eta",
      "single_word": false,
      "lstrip": false,
      "rstrip": false,
      "normalized": false,
      "special": false
    },
    {
      "id": 221,
      "content": "\\zeta",
      "single_word": false,
      "lstrip": false,
      "rstrip": false,
      "normalized": false,
      "special": false
    },
    {
      "id": 222,
      "content": "\\epsilon",
      "single_word": false,
      "lstrip": false,
      "rstrip": false,
      "normalized": false,
      "special": false
    },
    {
      "id": 223,
      "content": "\\delta",
      "single_word": false,
      "lstrip": false,
      "rstrip": false,
      "normalized": false,
      "special": false
    },
    {
      "id": 224,
      "content": "\\gamma",
      "single_word": false,
      "lstrip": false,
      "rstrip": false,
      "normalized": false,
      "special": false
    },
    {
      "id": 225,
      "content": "\\beta",
      "single_word": false,
      "lstrip": false,
      "rstrip": false,
      "normalized": false,
      "special": false
    },
    {
      "id": 226,
      "content": "\\alpha",
      "single_word": false,
      "lstrip": false,
      "rstrip": false,
      "normalized": false,
      "special": false
    },
    {
      "id": 227,
      "content": ">>UNUSED_215<<",
      "single_word": false,
      "lstrip": false,
      "rstrip": false,
      "normalized": false,
      "special": true
    },
    {
      "id": 228,
      "content": ">>UNUSED_216<<",
      "single_word": false,
      "lstrip": false,
      "rstrip": false,
      "normalized": false,
      "special": true
    },
    {
      "id": 229,
      "content": ">>UNUSED_217<<",
      "single_word": false,
      "lstrip": false,
      "rstrip": false,
      "normalized": false,
      "special": true
    },
    {
      "id": 230,
      "content": ">>UNUSED_218<<",
      "single_word": false,
      "lstrip": false,
      "rstrip": false,
      "normalized": false,
      "special": true
    },
    {
      "id": 231,
      "content": ">>UNUSED_219<<",
      "single_word": false,
      "lstrip": false,
      "rstrip": false,
      "normalized": false,
      "special": true
    },
    {
      "id": 232,
      "content": ">>UNUSED_220<<",
      "single_word": false,
      "lstrip": false,
      "rstrip": false,
      "normalized": false,
      "special": true
    },
    {
      "id": 233,
      "content": ">>UNUSED_221<<",
      "single_word": false,
      "lstrip": false,
      "rstrip": false,
      "normalized": false,
      "special": true
    },
    {
      "id": 234,
      "content": ">>UNUSED_222<<",
      "single_word": false,
      "lstrip": false,
      "rstrip": false,
      "normalized": false,
      "special": true
    },
    {
      "id": 235,
      "content": ">>UNUSED_223<<",
      "single_word": false,
      "lstrip": false,
      "rstrip": false,
      "normalized": false,
      "special": true
    },
    {
      "id": 236,
      "content": ">>UNUSED_224<<",
      "single_word": false,
      "lstrip": false,
      "rstrip": false,
      "normalized": false,
      "special": true
    },
    {
      "id": 237,
      "content": ">>UNUSED_225<<",
      "single_word": false,
      "lstrip": false,
      "rstrip": false,
      "normalized": false,
      "special": true
    },
    {
      "id": 238,
      "content": ">>UNUSED_226<<",
      "single_word": false,
      "lstrip": false,
      "rstrip": false,
      "normalized": false,
      "special": true
    },
    {
      "id": 239,
      "content": ">>UNUSED_227<<",
      "single_word": false,
      "lstrip": false,
      "rstrip": false,
      "normalized": false,
      "special": true
    },
    {
      "id": 240,
      "content": ">>UNUSED_228<<",
      "single_word": false,
      "lstrip": false,
      "rstrip": false,
      "normalized": false,
      "special": true
    },
    {
      "id": 241,
      "content": ">>UNUSED_229<<",
      "single_word": false,
      "lstrip": false,
      "rstrip": false,
      "normalized": false,
      "special": true
    },
    {
      "id": 242,
      "content": ">>UNUSED_230<<",
      "single_word": false,
      "lstrip": false,
      "rstrip": false,
      "normalized": false,
      "special": true
    },
    {
      "id": 243,
      "content": ">>UNUSED_231<<",
      "single_word": false,
      "lstrip": false,
      "rstrip": false,
      "normalized": false,
      "special": true
    },
    {
      "id": 244,
      "content": ">>UNUSED_232<<",
      "single_word": false,
      "lstrip": false,
      "rstrip": false,
      "normalized": false,
      "special": true
    },
    {
      "id": 245,
      "content": ">>UNUSED_233<<",
      "single_word": false,
      "lstrip": false,
      "rstrip": false,
      "normalized": false,
      "special": true
    },
    {
      "id": 246,
      "content": ">>UNUSED_234<<",
      "single_word": false,
      "lstrip": false,
      "rstrip": false,
      "normalized": false,
      "special": true
    },
    {
      "id": 247,
      "content": ">>UNUSED_235<<",
      "single_word": false,
      "lstrip": false,
      "rstrip": false,
      "normalized": false,
      "special": true
    },
    {
      "id": 248,
      "content": ">>UNUSED_236<<",
      "single_word": false,
      "lstrip": false,
      "rstrip": false,
      "normalized": false,
      "special": true
    },
    {
      "id": 249,
      "content": ">>UNUSED_237<<",
      "single_word": false,
      "lstrip": false,
      "rstrip": false,
      "normalized": false,
      "special": true
    },
    {
      "id": 250,
      "content": ">>UNUSED_238<<",
      "single_word": false,
      "lstrip": false,
      "rstrip": false,
      "normalized": false,
      "special": true
    },
    {
      "id": 251,
      "content": ">>UNUSED_239<<",
      "single_word": false,
      "lstrip": false,
      "rstrip": false,
      "normalized": false,
      "special": true
    },
    {
      "id": 252,
      "content": ">>UNUSED_240<<",
      "single_word": false,
      "lstrip": false,
      "rstrip": false,
      "normalized": false,
      "special": true
    },
    {
      "id": 253,
      "content": ">>UNUSED_241<<",
      "single_word": false,
      "lstrip": false,
      "rstrip": false,
      "normalized": false,
      "special": true
    },
    {
      "id": 254,
      "content": ">>UNUSED_242<<",
      "single_word": false,
      "lstrip": false,
      "rstrip": false,
      "normalized": false,
      "special": true
    },
    {
      "id": 255,
      "content": ">>UNUSED_243<<",
      "single_word": false,
      "lstrip": false,
      "rstrip": false,
      "normalized": false,
      "special": true
    },
    {
      "id": 256,
      "content": ">>UNUSED_244<<",
      "single_word": false,
      "lstrip": false,
      "rstrip": false,
      "normalized": false,
      "special": true
    },
    {
      "id": 257,
      "content": ">>UNUSED_245<<",
      "single_word": false,
      "lstrip": false,
      "rstrip": false,
      "normalized": false,
      "special": true
    },
    {
      "id": 258,
      "content": ">>UNUSED_246<<",
      "single_word": false,
      "lstrip": false,
      "rstrip": false,
      "normalized": false,
      "special": true
    },
    {
      "id": 259,
      "content": ">>UNUSED_247<<",
      "single_word": false,
      "lstrip": false,
      "rstrip": false,
      "normalized": false,
      "special": true
    },
    {
      "id": 260,
      "content": ">>UNUSED_248<<",
      "single_word": false,
      "lstrip": false,
      "rstrip": false,
      "normalized": false,
      "special": true
    },
    {
      "id": 261,
      "content": ">>UNUSED_249<<",
      "single_word": false,
      "lstrip": false,
      "rstrip": false,
      "normalized": false,
      "special": true
    },
    {
      "id": 262,
      "content": ">>UNUSED_250<<",
      "single_word": false,
      "lstrip": false,
      "rstrip": false,
      "normalized": false,
      "special": true
    },
    {
      "id": 263,
      "content": ">>UNUSED_251<<",
      "single_word": false,
      "lstrip": false,
      "rstrip": false,
      "normalized": false,
      "special": true
    },
    {
      "id": 264,
      "content": ">>UNUSED_252<<",
      "single_word": false,
      "lstrip": false,
      "rstrip": false,
      "normalized": false,
      "special": true
    },
    {
      "id": 265,
      "content": ">>UNUSED_253<<",
      "single_word": false,
      "lstrip": false,
      "rstrip": false,
      "normalized": false,
      "special": true
    },
    {
      "id": 266,
      "content": ">>UNUSED_254<<",
      "single_word": false,
      "lstrip": false,
      "rstrip": false,
      "normalized": false,
      "special": true
    },
    {
      "id": 267,
      "content": ">>UNUSED_255<<",
      "single_word": false,
      "lstrip": false,
      "rstrip": false,
      "normalized": false,
      "special": true
    },
    {
      "id": 268,
      "content": ">>UNUSED_256<<",
      "single_word": false,
      "lstrip": false,
      "rstrip": false,
      "normalized": false,
      "special": true
    },
    {
      "id": 269,
      "content": ">>UNUSED_257<<",
      "single_word": false,
      "lstrip": false,
      "rstrip": false,
      "normalized": false,
      "special": true
    },
    {
      "id": 270,
      "content": ">>UNUSED_258<<",
      "single_word": false,
      "lstrip": false,
      "rstrip": false,
      "normalized": false,
      "special": true
    },
    {
      "id": 271,
      "content": ">>UNUSED_259<<",
      "single_word": false,
      "lstrip": false,
      "rstrip": false,
      "normalized": false,
      "special": true
    },
    {
      "id": 272,
      "content": ">>UNUSED_260<<",
      "single_word": false,
      "lstrip": false,
      "rstrip": false,
      "normalized": false,
      "special": true
    },
    {
      "id": 273,
      "content": ">>UNUSED_261<<",
      "single_word": false,
      "lstrip": false,
      "rstrip": false,
      "normalized": false,
      "special": true
    },
    {
      "id": 274,
      "content": ">>UNUSED_262<<",
      "single_word": false,
      "lstrip": false,
      "rstrip": false,
      "normalized": false,
      "special": true
    },
    {
      "id": 275,
      "content": ">>UNUSED_263<<",
      "single_word": false,
      "lstrip": false,
      "rstrip": false,
      "normalized": false,
      "special": true
    },
    {
      "id": 276,
      "content": ">>UNUSED_264<<",
      "single_word": false,
      "lstrip": false,
      "rstrip": false,
      "normalized": false,
      "special": true
    },
    {
      "id": 277,
      "content": ">>UNUSED_265<<",
      "single_word": false,
      "lstrip": false,
      "rstrip": false,
      "normalized": false,
      "special": true
    },
    {
      "id": 278,
      "content": ">>UNUSED_266<<",
      "single_word": false,
      "lstrip": false,
      "rstrip": false,
      "normalized": false,
      "special": true
    },
    {
      "id": 279,
      "content": ">>UNUSED_267<<",
      "single_word": false,
      "lstrip": false,
      "rstrip": false,
      "normalized": false,
      "special": true
    },
    {
      "id": 280,
      "content": ">>UNUSED_268<<",
      "single_word": false,
      "lstrip": false,
      "rstrip": false,
      "normalized": false,
      "special": true
    },
    {
      "id": 281,
      "content": ">>UNUSED_269<<",
      "single_word": false,
      "lstrip": false,
      "rstrip": false,
      "normalized": false,
      "special": true
    },
    {
      "id": 282,
      "content": ">>UNUSED_270<<",
      "single_word": false,
      "lstrip": false,
      "rstrip": false,
      "normalized": false,
      "special": true
    },
    {
      "id": 283,
      "content": ">>UNUSED_271<<",
      "single_word": false,
      "lstrip": false,
      "rstrip": false,
      "normalized": false,
      "special": true
    },
    {
      "id": 284,
      "content": ">>UNUSED_272<<",
      "single_word": false,
      "lstrip": false,
      "rstrip": false,
      "normalized": false,
      "special": true
    },
    {
      "id": 285,
      "content": ">>UNUSED_273<<",
      "single_word": false,
      "lstrip": false,
      "rstrip": false,
      "normalized": false,
      "special": true
    },
    {
      "id": 286,
      "content": ">>UNUSED_274<<",
      "single_word": false,
      "lstrip": false,
      "rstrip": false,
      "normalized": false,
      "special": true
    },
    {
      "id": 287,
      "content": ">>UNUSED_275<<",
      "single_word": false,
      "lstrip": false,
      "rstrip": false,
      "normalized": false,
      "special": true
    },
    {
      "id": 288,
      "content": ">>UNUSED_276<<",
      "single_word": false,
      "lstrip": false,
      "rstrip": false,
      "normalized": false,
      "special": true
    },
    {
      "id": 289,
      "content": ">>UNUSED_277<<",
      "single_word": false,
      "lstrip": false,
      "rstrip": false,
      "normalized": false,
      "special": true
    },
    {
      "id": 290,
      "content": ">>UNUSED_278<<",
      "single_word": false,
      "lstrip": false,
      "rstrip": false,
      "normalized": false,
      "special": true
    },
    {
      "id": 291,
      "content": ">>UNUSED_279<<",
      "single_word": false,
      "lstrip": false,
      "rstrip": false,
      "normalized": false,
      "special": true
    },
    {
      "id": 292,
      "content": ">>UNUSED_280<<",
      "single_word": false,
      "lstrip": false,
      "rstrip": false,
      "normalized": false,
      "special": true
    },
    {
      "id": 293,
      "content": ">>UNUSED_281<<",
      "single_word": false,
      "lstrip": false,
      "rstrip": false,
      "normalized": false,
      "special": true
    },
    {
      "id": 294,
      "content": ">>UNUSED_282<<",
      "single_word": false,
      "lstrip": false,
      "rstrip": false,
      "normalized": false,
      "special": true
    },
    {
      "id": 295,
      "content": ">>UNUSED_283<<",
      "single_word": false,
      "lstrip": false,
      "rstrip": false,
      "normalized": false,
      "special": true
    },
    {
      "id": 296,
      "content": ">>UNUSED_284<<",
      "single_word": false,
      "lstrip": false,
      "rstrip": false,
      "normalized": false,
      "special": true
    },
    {
      "id": 297,
      "content": ">>UNUSED_285<<",
      "single_word": false,
      "lstrip": false,
      "rstrip": false,
      "normalized": false,
      "special": true
    },
    {
      "id": 298,
      "content": ">>UNUSED_286<<",
      "single_word": false,
      "lstrip": false,
      "rstrip": false,
      "normalized": false,
      "special": true
    },
    {
      "id": 299,
      "content": ">>UNUSED_287<<",
      "single_word": false,
      "lstrip": false,
      "rstrip": false,
      "normalized": false,
      "special": true
    },
    {
      "id": 300,
      "content": ">>UNUSED_288<<",
      "single_word": false,
      "lstrip": false,
      "rstrip": false,
      "normalized": false,
      "special": true
    },
    {
      "id": 301,
      "content": ">>UNUSED_289<<",
      "single_word": false,
      "lstrip": false,
      "rstrip": false,
      "normalized": false,
      "special": true
    },
    {
      "id": 302,
      "content": ">>UNUSED_290<<",
      "single_word": false,
      "lstrip": false,
      "rstrip": false,
      "normalized": false,
      "special": true
    },
    {
      "id": 303,
      "content": ">>UNUSED_291<<",
      "single_word": false,
      "lstrip": false,
      "rstrip": false,
      "normalized": false,
      "special": true
    },
    {
      "id": 304,
      "content": ">>UNUSED_292<<",
      "single_word": false,
      "lstrip": false,
      "rstrip": false,
      "normalized": false,
      "special": true
    },
    {
      "id": 305,
      "content": ">>UNUSED_293<<",
      "single_word": false,
      "lstrip": false,
      "rstrip": false,
      "normalized": false,
      "special": true
    },
    {
      "id": 306,
      "content": ">>UNUSED_294<<",
      "single_word": false,
      "lstrip": false,
      "rstrip": false,
      "normalized": false,
      "special": true
    },
    {
      "id": 307,
      "content": ">>UNUSED_295<<",
      "single_word": false,
      "lstrip": false,
      "rstrip": false,
      "normalized": false,
      "special": true
    },
    {
      "id": 308,
      "content": ">>UNUSED_296<<",
      "single_word": false,
      "lstrip": false,
      "rstrip": false,
      "normalized": false,
      "special": true
    },
    {
      "id": 309,
      "content": ">>UNUSED_297<<",
      "single_word": false,
      "lstrip": false,
      "rstrip": false,
      "normalized": false,
      "special": true
    },
    {
      "id": 310,
      "content": ">>UNUSED_298<<",
      "single_word": false,
      "lstrip": false,
      "rstrip": false,
      "normalized": false,
      "special": true
    },
    {
      "id": 311,
      "content": ">>UNUSED_299<<",
      "single_word": false,
      "lstrip": false,
      "rstrip": false,
      "normalized": false,
      "special": true
    },
    {
      "id": 312,
      "content": ">>UNUSED_300<<",
      "single_word": false,
      "lstrip": false,
      "rstrip": false,
      "normalized": false,
      "special": true
    },
    {
      "id": 313,
      "content": ">>UNUSED_301<<",
      "single_word": false,
      "lstrip": false,
      "rstrip": false,
      "normalized": false,
      "special": true
    },
    {
      "id": 314,
      "content": ">>UNUSED_302<<",
      "single_word": false,
      "lstrip": false,
      "rstrip": false,
      "normalized": false,
      "special": true
    },
    {
      "id": 315,
      "content": ">>UNUSED_303<<",
      "single_word": false,
      "lstrip": false,
      "rstrip": false,
      "normalized": false,
      "special": true
    },
    {
      "id": 316,
      "content": ">>UNUSED_304<<",
      "single_word": false,
      "lstrip": false,
      "rstrip": false,
      "normalized": false,
      "special": true
    },
    {
      "id": 317,
      "content": ">>UNUSED_305<<",
      "single_word": false,
      "lstrip": false,
      "rstrip": false,
      "normalized": false,
      "special": true
    },
    {
      "id": 318,
      "content": ">>UNUSED_306<<",
      "single_word": false,
      "lstrip": false,
      "rstrip": false,
      "normalized": false,
      "special": true
    },
    {
      "id": 319,
      "content": ">>UNUSED_307<<",
      "single_word": false,
      "lstrip": false,
      "rstrip": false,
      "normalized": false,
      "special": true
    },
    {
      "id": 320,
      "content": ">>UNUSED_308<<",
      "single_word": false,
      "lstrip": false,
      "rstrip": false,
      "normalized": false,
      "special": true
    },
    {
      "id": 321,
      "content": ">>UNUSED_309<<",
      "single_word": false,
      "lstrip": false,
      "rstrip": false,
      "normalized": false,
      "special": true
    },
    {
      "id": 322,
      "content": ">>UNUSED_310<<",
      "single_word": false,
      "lstrip": false,
      "rstrip": false,
      "normalized": false,
      "special": true
    },
    {
      "id": 323,
      "content": ">>UNUSED_311<<",
      "single_word": false,
      "lstrip": false,
      "rstrip": false,
      "normalized": false,
      "special": true
    },
    {
      "id": 324,
      "content": ">>UNUSED_312<<",
      "single_word": false,
      "lstrip": false,
      "rstrip": false,
      "normalized": false,
      "special": true
    },
    {
      "id": 325,
      "content": ">>UNUSED_313<<",
      "single_word": false,
      "lstrip": false,
      "rstrip": false,
      "normalized": false,
      "special": true
    },
    {
      "id": 326,
      "content": ">>UNUSED_314<<",
      "single_word": false,
      "lstrip": false,
      "rstrip": false,
      "normalized": false,
      "special": true
    },
    {
      "id": 327,
      "content": ">>UNUSED_315<<",
      "single_word": false,
      "lstrip": false,
      "rstrip": false,
      "normalized": false,
      "special": true
    },
    {
      "id": 328,
      "content": ">>UNUSED_316<<",
      "single_word": false,
      "lstrip": false,
      "rstrip": false,
      "normalized": false,
      "special": true
    },
    {
      "id": 329,
      "content": ">>UNUSED_317<<",
      "single_word": false,
      "lstrip": false,
      "rstrip": false,
      "normalized": false,
      "special": true
    },
    {
      "id": 330,
      "content": ">>UNUSED_318<<",
      "single_word": false,
      "lstrip": false,
      "rstrip": false,
      "normalized": false,
      "special": true
    },
    {
      "id": 331,
      "content": ">>UNUSED_319<<",
      "single_word": false,
      "lstrip": false,
      "rstrip": false,
      "normalized": false,
      "special": true
    },
    {
      "id": 332,
      "content": ">>UNUSED_320<<",
      "single_word": false,
      "lstrip": false,
      "rstrip": false,
      "normalized": false,
      "special": true
    },
    {
      "id": 333,
      "content": ">>UNUSED_321<<",
      "single_word": false,
      "lstrip": false,
      "rstrip": false,
      "normalized": false,
      "special": true
    },
    {
      "id": 334,
      "content": ">>UNUSED_322<<",
      "single_word": false,
      "lstrip": false,
      "rstrip": false,
      "normalized": false,
      "special": true
    },
    {
      "id": 335,
      "content": ">>UNUSED_323<<",
      "single_word": false,
      "lstrip": false,
      "rstrip": false,
      "normalized": false,
      "special": true
    },
    {
      "id": 336,
      "content": ">>UNUSED_324<<",
      "single_word": false,
      "lstrip": false,
      "rstrip": false,
      "normalized": false,
      "special": true
    },
    {
      "id": 337,
      "content": ">>UNUSED_325<<",
      "single_word": false,
      "lstrip": false,
      "rstrip": false,
      "normalized": false,
      "special": true
    },
    {
      "id": 338,
      "content": ">>UNUSED_326<<",
      "single_word": false,
      "lstrip": false,
      "rstrip": false,
      "normalized": false,
      "special": true
    },
    {
      "id": 339,
      "content": ">>UNUSED_327<<",
      "single_word": false,
      "lstrip": false,
      "rstrip": false,
      "normalized": false,
      "special": true
    },
    {
      "id": 340,
      "content": ">>UNUSED_328<<",
      "single_word": false,
      "lstrip": false,
      "rstrip": false,
      "normalized": false,
      "special": true
    },
    {
      "id": 341,
      "content": ">>UNUSED_329<<",
      "single_word": false,
      "lstrip": false,
      "rstrip": false,
      "normalized": false,
      "special": true
    },
    {
      "id": 342,
      "content": ">>UNUSED_330<<",
      "single_word": false,
      "lstrip": false,
      "rstrip": false,
      "normalized": false,
      "special": true
    },
    {
      "id": 343,
      "content": ">>UNUSED_331<<",
      "single_word": false,
      "lstrip": false,
      "rstrip": false,
      "normalized": false,
      "special": true
    },
    {
      "id": 344,
      "content": ">>UNUSED_332<<",
      "single_word": false,
      "lstrip": false,
      "rstrip": false,
      "normalized": false,
      "special": true
    },
    {
      "id": 345,
      "content": ">>UNUSED_333<<",
      "single_word": false,
      "lstrip": false,
      "rstrip": false,
      "normalized": false,
      "special": true
    },
    {
      "id": 346,
      "content": ">>UNUSED_334<<",
      "single_word": false,
      "lstrip": false,
      "rstrip": false,
      "normalized": false,
      "special": true
    },
    {
      "id": 347,
      "content": ">>UNUSED_335<<",
      "single_word": false,
      "lstrip": false,
      "rstrip": false,
      "normalized": false,
      "special": true
    },
    {
      "id": 348,
      "content": ">>UNUSED_336<<",
      "single_word": false,
      "lstrip": false,
      "rstrip": false,
      "normalized": false,
      "special": true
    },
    {
      "id": 349,
      "content": ">>UNUSED_337<<",
      "single_word": false,
      "lstrip": false,
      "rstrip": false,
      "normalized": false,
      "special": true
    },
    {
      "id": 350,
      "content": ">>UNUSED_338<<",
      "single_word": false,
      "lstrip": false,
      "rstrip": false,
      "normalized": false,
      "special": true
    },
    {
      "id": 351,
      "content": ">>UNUSED_339<<",
      "single_word": false,
      "lstrip": false,
      "rstrip": false,
      "normalized": false,
      "special": true
    },
    {
      "id": 352,
      "content": ">>UNUSED_340<<",
      "single_word": false,
      "lstrip": false,
      "rstrip": false,
      "normalized": false,
      "special": true
    },
    {
      "id": 353,
      "content": ">>UNUSED_341<<",
      "single_word": false,
      "lstrip": false,
      "rstrip": false,
      "normalized": false,
      "special": true
    },
    {
      "id": 354,
      "content": ">>UNUSED_342<<",
      "single_word": false,
      "lstrip": false,
      "rstrip": false,
      "normalized": false,
      "special": true
    },
    {
      "id": 355,
      "content": ">>UNUSED_343<<",
      "single_word": false,
      "lstrip": false,
      "rstrip": false,
      "normalized": false,
      "special": true
    },
    {
      "id": 356,
      "content": ">>UNUSED_344<<",
      "single_word": false,
      "lstrip": false,
      "rstrip": false,
      "normalized": false,
      "special": true
    },
    {
      "id": 357,
      "content": ">>UNUSED_345<<",
      "single_word": false,
      "lstrip": false,
      "rstrip": false,
      "normalized": false,
      "special": true
    },
    {
      "id": 358,
      "content": ">>UNUSED_346<<",
      "single_word": false,
      "lstrip": false,
      "rstrip": false,
      "normalized": false,
      "special": true
    },
    {
      "id": 359,
      "content": ">>UNUSED_347<<",
      "single_word": false,
      "lstrip": false,
      "rstrip": false,
      "normalized": false,
      "special": true
    },
    {
      "id": 360,
      "content": ">>UNUSED_348<<",
      "single_word": false,
      "lstrip": false,
      "rstrip": false,
      "normalized": false,
      "special": true
    },
    {
      "id": 361,
      "content": ">>UNUSED_349<<",
      "single_word": false,
      "lstrip": false,
      "rstrip": false,
      "normalized": false,
      "special": true
    },
    {
      "id": 362,
      "content": ">>UNUSED_350<<",
      "single_word": false,
      "lstrip": false,
      "rstrip": false,
      "normalized": false,
      "special": true
    },
    {
      "id": 363,
      "content": ">>UNUSED_351<<",
      "single_word": false,
      "lstrip": false,
      "rstrip": false,
      "normalized": false,
      "special": true
    },
    {
      "id": 364,
      "content": ">>UNUSED_352<<",
      "single_word": false,
      "lstrip": false,
      "rstrip": false,
      "normalized": false,
      "special": true
    },
    {
      "id": 365,
      "content": ">>UNUSED_353<<",
      "single_word": false,
      "lstrip": false,
      "rstrip": false,
      "normalized": false,
      "special": true
    },
    {
      "id": 366,
      "content": ">>UNUSED_354<<",
      "single_word": false,
      "lstrip": false,
      "rstrip": false,
      "normalized": false,
      "special": true
    },
    {
      "id": 367,
      "content": ">>UNUSED_355<<",
      "single_word": false,
      "lstrip": false,
      "rstrip": false,
      "normalized": false,
      "special": true
    },
    {
      "id": 368,
      "content": ">>UNUSED_356<<",
      "single_word": false,
      "lstrip": false,
      "rstrip": false,
      "normalized": false,
      "special": true
    },
    {
      "id": 369,
      "content": ">>UNUSED_357<<",
      "single_word": false,
      "lstrip": false,
      "rstrip": false,
      "normalized": false,
      "special": true
    },
    {
      "id": 370,
      "content": ">>UNUSED_358<<",
      "single_word": false,
      "lstrip": false,
      "rstrip": false,
      "normalized": false,
      "special": true
    },
    {
      "id": 371,
      "content": ">>UNUSED_359<<",
      "single_word": false,
      "lstrip": false,
      "rstrip": false,
      "normalized": false,
      "special": true
    },
    {
      "id": 372,
      "content": ">>UNUSED_360<<",
      "single_word": false,
      "lstrip": false,
      "rstrip": false,
      "normalized": false,
      "special": true
    },
    {
      "id": 373,
      "content": ">>UNUSED_361<<",
      "single_word": false,
      "lstrip": false,
      "rstrip": false,
      "normalized": false,
      "special": true
    },
    {
      "id": 374,
      "content": ">>UNUSED_362<<",
      "single_word": false,
      "lstrip": false,
      "rstrip": false,
      "normalized": false,
      "special": true
    },
    {
      "id": 375,
      "content": ">>UNUSED_363<<",
      "single_word": false,
      "lstrip": false,
      "rstrip": false,
      "normalized": false,
      "special": true
    },
    {
      "id": 376,
      "content": ">>UNUSED_364<<",
      "single_word": false,
      "lstrip": false,
      "rstrip": false,
      "normalized": false,
      "special": true
    },
    {
      "id": 377,
      "content": ">>UNUSED_365<<",
      "single_word": false,
      "lstrip": false,
      "rstrip": false,
      "normalized": false,
      "special": true
    },
    {
      "id": 378,
      "content": ">>UNUSED_366<<",
      "single_word": false,
      "lstrip": false,
      "rstrip": false,
      "normalized": false,
      "special": true
    },
    {
      "id": 379,
      "content": ">>UNUSED_367<<",
      "single_word": false,
      "lstrip": false,
      "rstrip": false,
      "normalized": false,
      "special": true
    },
    {
      "id": 380,
      "content": ">>UNUSED_368<<",
      "single_word": false,
      "lstrip": false,
      "rstrip": false,
      "normalized": false,
      "special": true
    },
    {
      "id": 381,
      "content": ">>UNUSED_369<<",
      "single_word": false,
      "lstrip": false,
      "rstrip": false,
      "normalized": false,
      "special": true
    },
    {
      "id": 382,
      "content": ">>UNUSED_370<<",
      "single_word": false,
      "lstrip": false,
      "rstrip": false,
      "normalized": false,
      "special": true
    },
    {
      "id": 383,
      "content": ">>UNUSED_371<<",
      "single_word": false,
      "lstrip": false,
      "rstrip": false,
      "normalized": false,
      "special": true
    },
    {
      "id": 384,
      "content": ">>UNUSED_372<<",
      "single_word": false,
      "lstrip": false,
      "rstrip": false,
      "normalized": false,
      "special": true
    },
    {
      "id": 385,
      "content": ">>UNUSED_373<<",
      "single_word": false,
      "lstrip": false,
      "rstrip": false,
      "normalized": false,
      "special": true
    },
    {
      "id": 386,
      "content": ">>UNUSED_374<<",
      "single_word": false,
      "lstrip": false,
      "rstrip": false,
      "normalized": false,
      "special": true
    },
    {
      "id": 387,
      "content": ">>UNUSED_375<<",
      "single_word": false,
      "lstrip": false,
      "rstrip": false,
      "normalized": false,
      "special": true
    },
    {
      "id": 388,
      "content": ">>UNUSED_376<<",
      "single_word": false,
      "lstrip": false,
      "rstrip": false,
      "normalized": false,
      "special": true
    },
    {
      "id": 389,
      "content": ">>UNUSED_377<<",
      "single_word": false,
      "lstrip": false,
      "rstrip": false,
      "normalized": false,
      "special": true
    },
    {
      "id": 390,
      "content": ">>UNUSED_378<<",
      "single_word": false,
      "lstrip": false,
      "rstrip": false,
      "normalized": false,
      "special": true
    },
    {
      "id": 391,
      "content": ">>UNUSED_379<<",
      "single_word": false,
      "lstrip": false,
      "rstrip": false,
      "normalized": false,
      "special": true
    },
    {
      "id": 392,
      "content": ">>UNUSED_380<<",
      "single_word": false,
      "lstrip": false,
      "rstrip": false,
      "normalized": false,
      "special": true
    },
    {
      "id": 393,
      "content": ">>UNUSED_381<<",
      "single_word": false,
      "lstrip": false,
      "rstrip": false,
      "normalized": false,
      "special": true
    },
    {
      "id": 394,
      "content": ">>UNUSED_382<<",
      "single_word": false,
      "lstrip": false,
      "rstrip": false,
      "normalized": false,
      "special": true
    },
    {
      "id": 395,
      "content": ">>UNUSED_383<<",
      "single_word": false,
      "lstrip": false,
      "rstrip": false,
      "normalized": false,
      "special": true
    },
    {
      "id": 396,
      "content": ">>UNUSED_384<<",
      "single_word": false,
      "lstrip": false,
      "rstrip": false,
      "normalized": false,
      "special": true
    },
    {
      "id": 397,
      "content": ">>UNUSED_385<<",
      "single_word": false,
      "lstrip": false,
      "rstrip": false,
      "normalized": false,
      "special": true
    },
    {
      "id": 398,
      "content": ">>UNUSED_386<<",
      "single_word": false,
      "lstrip": false,
      "rstrip": false,
      "normalized": false,
      "special": true
    },
    {
      "id": 399,
      "content": ">>UNUSED_387<<",
      "single_word": false,
      "lstrip": false,
      "rstrip": false,
      "normalized": false,
      "special": true
    },
    {
      "id": 400,
      "content": ">>UNUSED_388<<",
      "single_word": false,
      "lstrip": false,
      "rstrip": false,
      "normalized": false,
      "special": true
    },
    {
      "id": 401,
      "content": ">>UNUSED_389<<",
      "single_word": false,
      "lstrip": false,
      "rstrip": false,
      "normalized": false,
      "special": true
    },
    {
      "id": 402,
      "content": ">>UNUSED_390<<",
      "single_word": false,
      "lstrip": false,
      "rstrip": false,
      "normalized": false,
      "special": true
    },
    {
      "id": 403,
      "content": ">>UNUSED_391<<",
      "single_word": false,
      "lstrip": false,
      "rstrip": false,
      "normalized": false,
      "special": true
    },
    {
      "id": 404,
      "content": ">>UNUSED_392<<",
      "single_word": false,
      "lstrip": false,
      "rstrip": false,
      "normalized": false,
      "special": true
    },
    {
      "id": 405,
      "content": ">>UNUSED_393<<",
      "single_word": false,
      "lstrip": false,
      "rstrip": false,
      "normalized": false,
      "special": true
    },
    {
      "id": 406,
      "content": ">>UNUSED_394<<",
      "single_word": false,
      "lstrip": false,
      "rstrip": false,
      "normalized": false,
      "special": true
    },
    {
      "id": 407,
      "content": ">>UNUSED_395<<",
      "single_word": false,
      "lstrip": false,
      "rstrip": false,
      "normalized": false,
      "special": true
    },
    {
      "id": 408,
      "content": ">>UNUSED_396<<",
      "single_word": false,
      "lstrip": false,
      "rstrip": false,
      "normalized": false,
      "special": true
    },
    {
      "id": 409,
      "content": ">>UNUSED_397<<",
      "single_word": false,
      "lstrip": false,
      "rstrip": false,
      "normalized": false,
      "special": true
    },
    {
      "id": 410,
      "content": ">>UNUSED_398<<",
      "single_word": false,
      "lstrip": false,
      "rstrip": false,
      "normalized": false,
      "special": true
    },
    {
      "id": 411,
      "content": ">>UNUSED_399<<",
      "single_word": false,
      "lstrip": false,
      "rstrip": false,
      "normalized": false,
      "special": true
    },
    {
      "id": 412,
      "content": ">>UNUSED_400<<",
      "single_word": false,
      "lstrip": false,
      "rstrip": false,
      "normalized": false,
      "special": true
    },
    {
      "id": 413,
      "content": ">>UNUSED_401<<",
      "single_word": false,
      "lstrip": false,
      "rstrip": false,
      "normalized": false,
      "special": true
    },
    {
      "id": 414,
      "content": ">>UNUSED_402<<",
      "single_word": false,
      "lstrip": false,
      "rstrip": false,
      "normalized": false,
      "special": true
    },
    {
      "id": 415,
      "content": ">>UNUSED_403<<",
      "single_word": false,
      "lstrip": false,
      "rstrip": false,
      "normalized": false,
      "special": true
    },
    {
      "id": 416,
      "content": ">>UNUSED_404<<",
      "single_word": false,
      "lstrip": false,
      "rstrip": false,
      "normalized": false,
      "special": true
    },
    {
      "id": 417,
      "content": ">>UNUSED_405<<",
      "single_word": false,
      "lstrip": false,
      "rstrip": false,
      "normalized": false,
      "special": true
    },
    {
      "id": 418,
      "content": ">>UNUSED_406<<",
      "single_word": false,
      "lstrip": false,
      "rstrip": false,
      "normalized": false,
      "special": true
    },
    {
      "id": 419,
      "content": ">>UNUSED_407<<",
      "single_word": false,
      "lstrip": false,
      "rstrip": false,
      "normalized": false,
      "special": true
    },
    {
      "id": 420,
      "content": ">>UNUSED_408<<",
      "single_word": false,
      "lstrip": false,
      "rstrip": false,
      "normalized": false,
      "special": true
    },
    {
      "id": 421,
      "content": ">>UNUSED_409<<",
      "single_word": false,
      "lstrip": false,
      "rstrip": false,
      "normalized": false,
      "special": true
    },
    {
      "id": 422,
      "content": ">>UNUSED_410<<",
      "single_word": false,
      "lstrip": false,
      "rstrip": false,
      "normalized": false,
      "special": true
    },
    {
      "id": 423,
      "content": ">>UNUSED_411<<",
      "single_word": false,
      "lstrip": false,
      "rstrip": false,
      "normalized": false,
      "special": true
    },
    {
      "id": 424,
      "content": ">>UNUSED_412<<",
      "single_word": false,
      "lstrip": false,
      "rstrip": false,
      "normalized": false,
      "special": true
    },
    {
      "id": 425,
      "content": ">>UNUSED_413<<",
      "single_word": false,
      "lstrip": false,
      "rstrip": false,
      "normalized": false,
      "special": true
    },
    {
      "id": 426,
      "content": ">>UNUSED_414<<",
      "single_word": false,
      "lstrip": false,
      "rstrip": false,
      "normalized": false,
      "special": true
    },
    {
      "id": 427,
      "content": ">>UNUSED_415<<",
      "single_word": false,
      "lstrip": false,
      "rstrip": false,
      "normalized": false,
      "special": true
    },
    {
      "id": 428,
      "content": ">>UNUSED_416<<",
      "single_word": false,
      "lstrip": false,
      "rstrip": false,
      "normalized": false,
      "special": true
    },
    {
      "id": 429,
      "content": ">>UNUSED_417<<",
      "single_word": false,
      "lstrip": false,
      "rstrip": false,
      "normalized": false,
      "special": true
    },
    {
      "id": 430,
      "content": ">>UNUSED_418<<",
      "single_word": false,
      "lstrip": false,
      "rstrip": false,
      "normalized": false,
      "special": true
    },
    {
      "id": 431,
      "content": ">>UNUSED_419<<",
      "single_word": false,
      "lstrip": false,
      "rstrip": false,
      "normalized": false,
      "special": true
    },
    {
      "id": 432,
      "content": ">>UNUSED_420<<",
      "single_word": false,
      "lstrip": false,
      "rstrip": false,
      "normalized": false,
      "special": true
    },
    {
      "id": 433,
      "content": ">>UNUSED_421<<",
      "single_word": false,
      "lstrip": false,
      "rstrip": false,
      "normalized": false,
      "special": true
    },
    {
      "id": 434,
      "content": ">>UNUSED_422<<",
      "single_word": false,
      "lstrip": false,
      "rstrip": false,
      "normalized": false,
      "special": true
    },
    {
      "id": 435,
      "content": ">>UNUSED_423<<",
      "single_word": false,
      "lstrip": false,
      "rstrip": false,
      "normalized": false,
      "special": true
    },
    {
      "id": 436,
      "content": ">>UNUSED_424<<",
      "single_word": false,
      "lstrip": false,
      "rstrip": false,
      "normalized": false,
      "special": true
    },
    {
      "id": 437,
      "content": ">>UNUSED_425<<",
      "single_word": false,
      "lstrip": false,
      "rstrip": false,
      "normalized": false,
      "special": true
    },
    {
      "id": 438,
      "content": ">>UNUSED_426<<",
      "single_word": false,
      "lstrip": false,
      "rstrip": false,
      "normalized": false,
      "special": true
    },
    {
      "id": 439,
      "content": ">>UNUSED_427<<",
      "single_word": false,
      "lstrip": false,
      "rstrip": false,
      "normalized": false,
      "special": true
    },
    {
      "id": 440,
      "content": ">>UNUSED_428<<",
      "single_word": false,
      "lstrip": false,
      "rstrip": false,
      "normalized": false,
      "special": true
    },
    {
      "id": 441,
      "content": ">>UNUSED_429<<",
      "single_word": false,
      "lstrip": false,
      "rstrip": false,
      "normalized": false,
      "special": true
    },
    {
      "id": 442,
      "content": ">>UNUSED_430<<",
      "single_word": false,
      "lstrip": false,
      "rstrip": false,
      "normalized": false,
      "special": true
    },
    {
      "id": 443,
      "content": ">>UNUSED_431<<",
      "single_word": false,
      "lstrip": false,
      "rstrip": false,
      "normalized": false,
      "special": true
    },
    {
      "id": 444,
      "content": ">>UNUSED_432<<",
      "single_word": false,
      "lstrip": false,
      "rstrip": false,
      "normalized": false,
      "special": true
    },
    {
      "id": 445,
      "content": ">>UNUSED_433<<",
      "single_word": false,
      "lstrip": false,
      "rstrip": false,
      "normalized": false,
      "special": true
    },
    {
      "id": 446,
      "content": ">>UNUSED_434<<",
      "single_word": false,
      "lstrip": false,
      "rstrip": false,
      "normalized": false,
      "special": true
    },
    {
      "id": 447,
      "content": ">>UNUSED_435<<",
      "single_word": false,
      "lstrip": false,
      "rstrip": false,
      "normalized": false,
      "special": true
    },
    {
      "id": 448,
      "content": ">>UNUSED_436<<",
      "single_word": false,
      "lstrip": false,
      "rstrip": false,
      "normalized": false,
      "special": true
    },
    {
      "id": 449,
      "content": ">>UNUSED_437<<",
      "single_word": false,
      "lstrip": false,
      "rstrip": false,
      "normalized": false,
      "special": true
    },
    {
      "id": 450,
      "content": ">>UNUSED_438<<",
      "single_word": false,
      "lstrip": false,
      "rstrip": false,
      "normalized": false,
      "special": true
    },
    {
      "id": 451,
      "content": ">>UNUSED_439<<",
      "single_word": false,
      "lstrip": false,
      "rstrip": false,
      "normalized": false,
      "special": true
    },
    {
      "id": 452,
      "content": ">>UNUSED_440<<",
      "single_word": false,
      "lstrip": false,
      "rstrip": false,
      "normalized": false,
      "special": true
    },
    {
      "id": 453,
      "content": ">>UNUSED_441<<",
      "single_word": false,
      "lstrip": false,
      "rstrip": false,
      "normalized": false,
      "special": true
    },
    {
      "id": 454,
      "content": ">>UNUSED_442<<",
      "single_word": false,
      "lstrip": false,
      "rstrip": false,
      "normalized": false,
      "special": true
    },
    {
      "id": 455,
      "content": ">>UNUSED_443<<",
      "single_word": false,
      "lstrip": false,
      "rstrip": false,
      "normalized": false,
      "special": true
    },
    {
      "id": 456,
      "content": ">>UNUSED_444<<",
      "single_word": false,
      "lstrip": false,
      "rstrip": false,
      "normalized": false,
      "special": true
    },
    {
      "id": 457,
      "content": ">>UNUSED_445<<",
      "single_word": false,
      "lstrip": false,
      "rstrip": false,
      "normalized": false,
      "special": true
    },
    {
      "id": 458,
      "content": ">>UNUSED_446<<",
      "single_word": false,
      "lstrip": false,
      "rstrip": false,
      "normalized": false,
      "special": true
    },
    {
      "id": 459,
      "content": ">>UNUSED_447<<",
      "single_word": false,
      "lstrip": false,
      "rstrip": false,
      "normalized": false,
      "special": true
    },
    {
      "id": 460,
      "content": ">>UNUSED_448<<",
      "single_word": false,
      "lstrip": false,
      "rstrip": false,
      "normalized": false,
      "special": true
    },
    {
      "id": 461,
      "content": ">>UNUSED_449<<",
      "single_word": false,
      "lstrip": false,
      "rstrip": false,
      "normalized": false,
      "special": true
    },
    {
      "id": 462,
      "content": ">>UNUSED_450<<",
      "single_word": false,
      "lstrip": false,
      "rstrip": false,
      "normalized": false,
      "special": true
    },
    {
      "id": 463,
      "content": ">>UNUSED_451<<",
      "single_word": false,
      "lstrip": false,
      "rstrip": false,
      "normalized": false,
      "special": true
    },
    {
      "id": 464,
      "content": ">>UNUSED_452<<",
      "single_word": false,
      "lstrip": false,
      "rstrip": false,
      "normalized": false,
      "special": true
    },
    {
      "id": 465,
      "content": ">>UNUSED_453<<",
      "single_word": false,
      "lstrip": false,
      "rstrip": false,
      "normalized": false,
      "special": true
    },
    {
      "id": 466,
      "content": ">>UNUSED_454<<",
      "single_word": false,
      "lstrip": false,
      "rstrip": false,
      "normalized": false,
      "special": true
    },
    {
      "id": 467,
      "content": ">>UNUSED_455<<",
      "single_word": false,
      "lstrip": false,
      "rstrip": false,
      "normalized": false,
      "special": true
    },
    {
      "id": 468,
      "content": ">>UNUSED_456<<",
      "single_word": false,
      "lstrip": false,
      "rstrip": false,
      "normalized": false,
      "special": true
    },
    {
      "id": 469,
      "content": ">>UNUSED_457<<",
      "single_word": false,
      "lstrip": false,
      "rstrip": false,
      "normalized": false,
      "special": true
    },
    {
      "id": 470,
      "content": ">>UNUSED_458<<",
      "single_word": false,
      "lstrip": false,
      "rstrip": false,
      "normalized": false,
      "special": true
    },
    {
      "id": 471,
      "content": ">>UNUSED_459<<",
      "single_word": false,
      "lstrip": false,
      "rstrip": false,
      "normalized": false,
      "special": true
    },
    {
      "id": 472,
      "content": ">>UNUSED_460<<",
      "single_word": false,
      "lstrip": false,
      "rstrip": false,
      "normalized": false,
      "special": true
    },
    {
      "id": 473,
      "content": ">>UNUSED_461<<",
      "single_word": false,
      "lstrip": false,
      "rstrip": false,
      "normalized": false,
      "special": true
    },
    {
      "id": 474,
      "content": ">>UNUSED_462<<",
      "single_word": false,
      "lstrip": false,
      "rstrip": false,
      "normalized": false,
      "special": true
    },
    {
      "id": 475,
      "content": ">>UNUSED_463<<",
      "single_word": false,
      "lstrip": false,
      "rstrip": false,
      "normalized": false,
      "special": true
    },
    {
      "id": 476,
      "content": ">>UNUSED_464<<",
      "single_word": false,
      "lstrip": false,
      "rstrip": false,
      "normalized": false,
      "special": true
    },
    {
      "id": 477,
      "content": ">>UNUSED_465<<",
      "single_word": false,
      "lstrip": false,
      "rstrip": false,
      "normalized": false,
      "special": true
    },
    {
      "id": 478,
      "content": ">>UNUSED_466<<",
      "single_word": false,
      "lstrip": false,
      "rstrip": false,
      "normalized": false,
      "special": true
    },
    {
      "id": 479,
      "content": ">>UNUSED_467<<",
      "single_word": false,
      "lstrip": false,
      "rstrip": false,
      "normalized": false,
      "special": true
    },
    {
      "id": 480,
      "content": ">>UNUSED_468<<",
      "single_word": false,
      "lstrip": false,
      "rstrip": false,
      "normalized": false,
      "special": true
    },
    {
      "id": 481,
      "content": ">>UNUSED_469<<",
      "single_word": false,
      "lstrip": false,
      "rstrip": false,
      "normalized": false,
      "special": true
    },
    {
      "id": 482,
      "content": ">>UNUSED_470<<",
      "single_word": false,
      "lstrip": false,
      "rstrip": false,
      "normalized": false,
      "special": true
    },
    {
      "id": 483,
      "content": ">>UNUSED_471<<",
      "single_word": false,
      "lstrip": false,
      "rstrip": false,
      "normalized": false,
      "special": true
    },
    {
      "id": 484,
      "content": ">>UNUSED_472<<",
      "single_word": false,
      "lstrip": false,
      "rstrip": false,
      "normalized": false,
      "special": true
    },
    {
      "id": 485,
      "content": ">>UNUSED_473<<",
      "single_word": false,
      "lstrip": false,
      "rstrip": false,
      "normalized": false,
      "special": true
    },
    {
      "id": 486,
      "content": ">>UNUSED_474<<",
      "single_word": false,
      "lstrip": false,
      "rstrip": false,
      "normalized": false,
      "special": true
    },
    {
      "id": 487,
      "content": ">>UNUSED_475<<",
      "single_word": false,
      "lstrip": false,
      "rstrip": false,
      "normalized": false,
      "special": true
    },
    {
      "id": 488,
      "content": ">>UNUSED_476<<",
      "single_word": false,
      "lstrip": false,
      "rstrip": false,
      "normalized": false,
      "special": true
    },
    {
      "id": 489,
      "content": ">>UNUSED_477<<",
      "single_word": false,
      "lstrip": false,
      "rstrip": false,
      "normalized": false,
      "special": true
    },
    {
      "id": 490,
      "content": ">>UNUSED_478<<",
      "single_word": false,
      "lstrip": false,
      "rstrip": false,
      "normalized": false,
      "special": true
    },
    {
      "id": 491,
      "content": ">>UNUSED_479<<",
      "single_word": false,
      "lstrip": false,
      "rstrip": false,
      "normalized": false,
      "special": true
    },
    {
      "id": 492,
      "content": ">>UNUSED_480<<",
      "single_word": false,
      "lstrip": false,
      "rstrip": false,
      "normalized": false,
      "special": true
    },
    {
      "id": 493,
      "content": ">>UNUSED_481<<",
      "single_word": false,
      "lstrip": false,
      "rstrip": false,
      "normalized": false,
      "special": true
    },
    {
      "id": 494,
      "content": ">>UNUSED_482<<",
      "single_word": false,
      "lstrip": false,
      "rstrip": false,
      "normalized": false,
      "special": true
    },
    {
      "id": 495,
      "content": ">>UNUSED_483<<",
      "single_word": false,
      "lstrip": false,
      "rstrip": false,
      "normalized": false,
      "special": true
    },
    {
      "id": 496,
      "content": ">>UNUSED_484<<",
      "single_word": false,
      "lstrip": false,
      "rstrip": false,
      "normalized": false,
      "special": true
    },
    {
      "id": 497,
      "content": ">>UNUSED_485<<",
      "single_word": false,
      "lstrip": false,
      "rstrip": false,
      "normalized": false,
      "special": true
    },
    {
      "id": 498,
      "content": ">>UNUSED_486<<",
      "single_word": false,
      "lstrip": false,
      "rstrip": false,
      "normalized": false,
      "special": true
    },
    {
      "id": 499,
      "content": ">>UNUSED_487<<",
      "single_word": false,
      "lstrip": false,
      "rstrip": false,
      "normalized": false,
      "special": true
    },
    {
      "id": 500,
      "content": ">>UNUSED_488<<",
      "single_word": false,
      "lstrip": false,
      "rstrip": false,
      "normalized": false,
      "special": true
    },
    {
      "id": 501,
      "content": ">>UNUSED_489<<",
      "single_word": false,
      "lstrip": false,
      "rstrip": false,
      "normalized": false,
      "special": true
    },
    {
      "id": 502,
      "content": ">>UNUSED_490<<",
      "single_word": false,
      "lstrip": false,
      "rstrip": false,
      "normalized": false,
      "special": true
    },
    {
      "id": 503,
      "content": ">>UNUSED_491<<",
      "single_word": false,
      "lstrip": false,
      "rstrip": false,
      "normalized": false,
      "special": true
    },
    {
      "id": 504,
      "content": ">>UNUSED_492<<",
      "single_word": false,
      "lstrip": false,
      "rstrip": false,
      "normalized": false,
      "special": true
    },
    {
      "id": 505,
      "content": ">>UNUSED_493<<",
      "single_word": false,
      "lstrip": false,
      "rstrip": false,
      "normalized": false,
      "special": true
    },
    {
      "id": 506,
      "content": ">>UNUSED_494<<",
      "single_word": false,
      "lstrip": false,
      "rstrip": false,
      "normalized": false,
      "special": true
    },
    {
      "id": 507,
      "content": ">>UNUSED_495<<",
      "single_word": false,
      "lstrip": false,
      "rstrip": false,
      "normalized": false,
      "special": true
    },
    {
      "id": 508,
      "content": ">>UNUSED_496<<",
      "single_word": false,
      "lstrip": false,
      "rstrip": false,
      "normalized": false,
      "special": true
    },
    {
      "id": 509,
      "content": ">>UNUSED_497<<",
      "single_word": false,
      "lstrip": false,
      "rstrip": false,
      "normalized": false,
      "special": true
    },
    {
      "id": 510,
      "content": ">>UNUSED_498<<",
      "single_word": false,
      "lstrip": false,
      "rstrip": false,
      "normalized": false,
      "special": true
    },
    {
      "id": 511,
      "content": ">>UNUSED_499<<",
      "single_word": false,
      "lstrip": false,
      "rstrip": false,
      "normalized": false,
      "special": true
    },
    {
      "id": 512,
      "content": ">>UNUSED_500<<",
      "single_word": false,
      "lstrip": false,
      "rstrip": false,
      "normalized": false,
      "special": true
    },
    {
      "id": 513,
      "content": ">>UNUSED_501<<",
      "single_word": false,
      "lstrip": false,
      "rstrip": false,
      "normalized": false,
      "special": true
    },
    {
      "id": 514,
      "content": ">>UNUSED_502<<",
      "single_word": false,
      "lstrip": false,
      "rstrip": false,
      "normalized": false,
      "special": true
    },
    {
      "id": 515,
      "content": ">>UNUSED_503<<",
      "single_word": false,
      "lstrip": false,
      "rstrip": false,
      "normalized": false,
      "special": true
    },
    {
      "id": 516,
      "content": ">>UNUSED_504<<",
      "single_word": false,
      "lstrip": false,
      "rstrip": false,
      "normalized": false,
      "special": true
    },
    {
      "id": 517,
      "content": ">>UNUSED_505<<",
      "single_word": false,
      "lstrip": false,
      "rstrip": false,
      "normalized": false,
      "special": true
    },
    {
      "id": 518,
      "content": ">>UNUSED_506<<",
      "single_word": false,
      "lstrip": false,
      "rstrip": false,
      "normalized": false,
      "special": true
    },
    {
      "id": 519,
      "content": ">>UNUSED_507<<",
      "single_word": false,
      "lstrip": false,
      "rstrip": false,
      "normalized": false,
      "special": true
    },
    {
      "id": 520,
      "content": ">>UNUSED_508<<",
      "single_word": false,
      "lstrip": false,
      "rstrip": false,
      "normalized": false,
      "special": true
    },
    {
      "id": 521,
      "content": ">>UNUSED_509<<",
      "single_word": false,
      "lstrip": false,
      "rstrip": false,
      "normalized": false,
      "special": true
    },
    {
      "id": 522,
      "content": ">>UNUSED_510<<",
      "single_word": false,
      "lstrip": false,
      "rstrip": false,
      "normalized": false,
      "special": true
    },
    {
      "id": 523,
      "content": ">>UNUSED_511<<",
      "single_word": false,
      "lstrip": false,
      "rstrip": false,
      "normalized": false,
      "special": true
    }
  ],
  "normalizer": null,
  "pre_tokenizer": {
    "type": "Sequence",
    "pretokenizers": [
      {
        "type": "Punctuation",
        "behavior": "Contiguous"
      },
      {
        "type": "Split",
        "pattern": {
          "Regex": "[^\\r\\n\\p{L}\\p{N}]?[\\p{Lu}\\p{Lt}\\p{Lm}\\p{Lo}\\p{M}]*[\\p{Ll}\\p{Lm}\\p{Lo}\\p{M}]+|[^\\r\\n\\p{L}\\p{N}]?[\\p{Lu}\\p{Lt}\\p{Lm}\\p{Lo}\\p{M}]+[\\p{Ll}\\p{Lm}\\p{Lo}\\p{M}]*|\\p{N}| ?[^\\s\\p{L}\\p{N}]+[\\r\\n/]*|\\s*[\\r\\n]+|\\s+(?!\\S)|\\s+"
        },
        "behavior": "Isolated",
        "invert": false
      },
      {
        "type": "ByteLevel",
        "add_prefix_space": false,
        "trim_offsets": true,
        "use_regex": false
      },
      {
        "type": "Split",
        "pattern": {
          "Regex": "[0-9]"
        },
        "behavior": "Isolated",
        "invert": false
      }
    ]
  },
  "post_processor": null,
  "decoder": {
    "type": "ByteLevel",
    "add_prefix_space": true,
    "trim_offsets": true,
    "use_regex": true
  },
  "model": {
    "type": "BPE",
    "dropout": null,
    "unk_token": null,
    "continuing_subword_prefix": null,
    "end_of_word_suffix": null,
    "fuse_unk": false,
    "byte_fallback": false,
    "ignore_merges": false,
    "vocab": {
      "<|pad|>": 0,
      ">>ABSTRACT<<": 1,
      ">>INTRODUCTION<<": 2,
      ">>SUMMARY<<": 3,
      ">>COMMENT<<": 4,
      ">>ANSWER<<": 5,
      ">>QUESTION<<": 6,
      ">>DOMAIN<<": 7,
      ">>PREFIX<<": 8,
      ">>SUFFIX<<": 9,
      ">>MIDDLE<<": 10,
      "<|end_of_text|>": 11,
      "<|finetune_right_pad_id|>": 12,
      "<|start_header_id|>": 13,
      "<|end_header_id|>": 14,
      "<|eom_id|>": 15,
      "<|eot_id|>": 16,
      "<|begin_of_text|>": 17,
      ">>TITLE<<": 18,
      "<tool_response>": 19,
      "</tool_response>": 20,
      "<tool_call>": 21,
      "</tool_call>": 22,
      "<schema>": 23,
      "</schema>": 24,
      "<scratch_pad>": 25,
      "</scratch_pad>": 26,
      "<thinking>": 27,
      "</thinking>": 28,
      "<explanation>": 29,
      "</explanation>": 30,
      "<file_sep>": 31,
      "<repo_name>": 32,
      "\\blindtext": 33,
      "\\newpage": 34,
      "\\boxed": 35,
      "\\framebox": 36,
      "\\fbox": 37,
      "\\tag": 38,
      "\\nonumber": 39,
      "\\item": 40,
      "\\centering": 41,
      "\\caption": 42,
      "\\includegraphics": 43,
      "\\label": 44,
      "\\multicolumn": 45,
      "\\cline": 46,
      "\\hline": 47,
      "\\end": 48,
      "\\begin": 49,
      "\\tableofcontents": 50,
      "\\maketitle": 51,
      "\\date": 52,
      "\\author": 53,
      "\\title": 54,
      "\\chapter": 55,
      "\\subsubsection": 56,
      "\\subsection": 57,
      "\\section": 58,
      "\\noindent": 59,
      "\\newline": 60,
      "\\par": 61,
      "\\ddot": 62,
      "\\dot": 63,
      "\\bar": 64,
      "\\iff": 65,
      "\\implies": 66,
      "\\neg": 67,
      "\\lor": 68,
      "\\land": 69,
      "\\qquad": 70,
      "\\quad": 71,
      "\\arctan": 72,
      "\\arccos": 73,
      "\\arcsin": 74,
      "\\cot": 75,
      "\\sec": 76,
      "\\csc": 77,
      "\\tan": 78,
      "\\cos": 79,
      "\\sin": 80,
      "\\widetilde": 81,
      "\\widehat": 82,
      "\\complement": 83,
      "\\varnothing": 84,
      "\\tilde": 85,
      "\\hat": 86,
      "\\vec": 87,
      "\\mathfrak": 88,
      "\\mathcal": 89,
      "\\mathbb": 90,
      "\\emptyset": 91,
      "\\bot": 92,
      "\\aleph": 93,
      "\\Re": 94,
      "\\Im": 95,
      "\\ell": 96,
      "\\hbar": 97,
      "\\exists": 98,
      "\\forall": 99,
      "\\partial": 100,
      "\\nabla": 101,
      "\\infty": 102,
      "\\binom": 103,
      "\\overline": 104,
      "\\sqrt": 105,
      "\\tfrac": 106,
      "\\dfrac": 107,
      "\\frac": 108,
      "\\textsc": 109,
      "\\textsf": 110,
      "\\texttt": 111,
      "\\emph": 112,
      "\\underline": 113,
      "\\textit": 114,
      "\\textbf": 115,
      "\\bigoplus": 116,
      "\\bigcap": 117,
      "\\bigcup": 118,
      "\\prod": 119,
      "\\sum": 120,
      "\\oint": 121,
      "\\iiint": 122,
      "\\iint": 123,
      "\\int": 124,
      "\\right": 125,
      "\\left": 126,
      "\\Bigr": 127,
      "\\Bigl": 128,
      "\\bigr": 129,
      "\\bigl": 130,
      ">>UNUSED_119<<": 131,
      ">>UNUSED_120<<": 132,
      "\\rceil": 133,
      "\\lceil": 134,
      "\\rfloor": 135,
      "\\lfloor": 136,
      "\\rangle": 137,
      "\\langle": 138,
      "\\overleftarrow": 139,
      "\\overleftrightarrow": 140,
      "\\overrightarrow": 141,
      "\\Longleftrightarrow": 142,
      "\\longleftrightarrow": 143,
      "\\longrightarrow": 144,
      "\\longleftarrow": 145,
      "\\Longrightarrow": 146,
      "\\Longleftarrow": 147,
      "\\gets": 148,
      "\\to": 149,
      "\\mapsto": 150,
      "\\Updownarrow": 151,
      "\\Downarrow": 152,
      "\\Uparrow": 153,
      "\\updownarrow": 154,
      "\\downarrow": 155,
      "\\uparrow": 156,
      "\\Leftrightarrow": 157,
      "\\Rightarrow": 158,
      "\\Leftarrow": 159,
      "\\leftrightarrow": 160,
      "\\rightarrow": 161,
      "\\leftarrow": 162,
      "\\perp": 163,
      "\\propto": 164,
      "\\ni": 165,
      "\\notin": 166,
      "\\in": 167,
      "\\supseteq": 168,
      "\\supset": 169,
      "\\sqsupseteq": 170,
      "\\sqsubseteq": 171,
      "\\subseteq": 172,
      "\\subset": 173,
      "\\cong": 174,
      "\\approx": 175,
      "\\simeq": 176,
      "\\sim": 177,
      "\\equiv": 178,
      "\\neq": 179,
      "\\geq": 180,
      "\\leq": 181,
      "\\oslash": 182,
      "\\otimes": 183,
      "\\ominus": 184,
      "\\oplus": 185,
      "\\wedge": 186,
      "\\vee": 187,
      "\\sqcup": 188,
      "\\sqcap": 189,
      "\\uplus": 190,
      "\\cup": 191,
      "\\cap": 192,
      "\\cdot": 193,
      "\\bullet": 194,
      "\\circ": 195,
      "\\star": 196,
      "\\ast": 197,
      "\\div": 198,
      "\\times": 199,
      "\\mp": 200,
      "\\pm": 201,
      "\\omega": 202,
      "\\psi": 203,
      "\\chi": 204,
      "\\varphi": 205,
      "\\varsigma": 206,
      "\\phi": 207,
      "\\upsilon": 208,
      "\\tau": 209,
      "\\sigma": 210,
      "\\rho": 211,
      "\\pi": 212,
      "\\xi": 213,
      "\\nu": 214,
      "\\mu": 215,
      "\\lambda": 216,
      "\\kappa": 217,
      "\\iota": 218,
      "\\theta": 219,
      "\\eta": 220,
      "\\zeta": 221,
      "\\epsilon": 222,
      "\\delta": 223,
      "\\gamma": 224,
      "\\beta": 225,
      "\\alpha": 226,
      ">>UNUSED_215<<": 227,
      ">>UNUSED_216<<": 228,
      ">>UNUSED_217<<": 229,
      ">>UNUSED_218<<": 230,
      ">>UNUSED_219<<": 231,
      ">>UNUSED_220<<": 232,
      ">>UNUSED_221<<": 233,
      ">>UNUSED_222<<": 234,
      ">>UNUSED_223<<": 235,
      ">>UNUSED_224<<": 236,
      ">>UNUSED_225<<": 237,
      ">>UNUSED_226<<": 238,
      ">>UNUSED_227<<": 239,
      ">>UNUSED_228<<": 240,
      ">>UNUSED_229<<": 241,
      ">>UNUSED_230<<": 242,
      ">>UNUSED_231<<": 243,
      ">>UNUSED_232<<": 244,
      ">>UNUSED_233<<": 245,
      ">>UNUSED_234<<": 246,
      ">>UNUSED_235<<": 247,
      ">>UNUSED_236<<": 248,
      ">>UNUSED_237<<": 249,
      ">>UNUSED_238<<": 250,
      ">>UNUSED_239<<": 251,
      ">>UNUSED_240<<": 252,
      ">>UNUSED_241<<": 253,
      ">>UNUSED_242<<": 254,
      ">>UNUSED_243<<": 255,
      ">>UNUSED_244<<": 256,
      ">>UNUSED_245<<": 257,
      ">>UNUSED_246<<": 258,
      ">>UNUSED_247<<": 259,
      ">>UNUSED_248<<": 260,
      ">>UNUSED_249<<": 261,
      ">>UNUSED_250<<": 262,
      ">>UNUSED_251<<": 263,
      ">>UNUSED_252<<": 264,
      ">>UNUSED_253<<": 265,
      ">>UNUSED_254<<": 266,
      ">>UNUSED_255<<": 267,
      ">>UNUSED_256<<": 268,
      ">>UNUSED_257<<": 269,
      ">>UNUSED_258<<": 270,
      ">>UNUSED_259<<": 271,
      ">>UNUSED_260<<": 272,
      ">>UNUSED_261<<": 273,
      ">>UNUSED_262<<": 274,
      ">>UNUSED_263<<": 275,
      ">>UNUSED_264<<": 276,
      ">>UNUSED_265<<": 277,
      ">>UNUSED_266<<": 278,
      ">>UNUSED_267<<": 279,
      ">>UNUSED_268<<": 280,
      ">>UNUSED_269<<": 281,
      ">>UNUSED_270<<": 282,
      ">>UNUSED_271<<": 283,
      ">>UNUSED_272<<": 284,
      ">>UNUSED_273<<": 285,
      ">>UNUSED_274<<": 286,
      ">>UNUSED_275<<": 287,
      ">>UNUSED_276<<": 288,
      ">>UNUSED_277<<": 289,
      ">>UNUSED_278<<": 290,
      ">>UNUSED_279<<": 291,
      ">>UNUSED_280<<": 292,
      ">>UNUSED_281<<": 293,
      ">>UNUSED_282<<": 294,
      ">>UNUSED_283<<": 295,
      ">>UNUSED_284<<": 296,
      ">>UNUSED_285<<": 297,
      ">>UNUSED_286<<": 298,
      ">>UNUSED_287<<": 299,
      ">>UNUSED_288<<": 300,
      ">>UNUSED_289<<": 301,
      ">>UNUSED_290<<": 302,
      ">>UNUSED_291<<": 303,
      ">>UNUSED_292<<": 304,
      ">>UNUSED_293<<": 305,
      ">>UNUSED_294<<": 306,
      ">>UNUSED_295<<": 307,
      ">>UNUSED_296<<": 308,
      ">>UNUSED_297<<": 309,
      ">>UNUSED_298<<": 310,
      ">>UNUSED_299<<": 311,
      ">>UNUSED_300<<": 312,
      ">>UNUSED_301<<": 313,
      ">>UNUSED_302<<": 314,
      ">>UNUSED_303<<": 315,
      ">>UNUSED_304<<": 316,
      ">>UNUSED_305<<": 317,
      ">>UNUSED_306<<": 318,
      ">>UNUSED_307<<": 319,
      ">>UNUSED_308<<": 320,
      ">>UNUSED_309<<": 321,
      ">>UNUSED_310<<": 322,
      ">>UNUSED_311<<": 323,
      ">>UNUSED_312<<": 324,
      ">>UNUSED_313<<": 325,
      ">>UNUSED_314<<": 326,
      ">>UNUSED_315<<": 327,
      ">>UNUSED_316<<": 328,
      ">>UNUSED_317<<": 329,
      ">>UNUSED_318<<": 330,
      ">>UNUSED_319<<": 331,
      ">>UNUSED_320<<": 332,
      ">>UNUSED_321<<": 333,
      ">>UNUSED_322<<": 334,
      ">>UNUSED_323<<": 335,
      ">>UNUSED_324<<": 336,
      ">>UNUSED_325<<": 337,
      ">>UNUSED_326<<": 338,
      ">>UNUSED_327<<": 339,
      ">>UNUSED_328<<": 340,
      ">>UNUSED_329<<": 341,
      ">>UNUSED_330<<": 342,
      ">>UNUSED_331<<": 343,
      ">>UNUSED_332<<": 344,
      ">>UNUSED_333<<": 345,
      ">>UNUSED_334<<": 346,
      ">>UNUSED_335<<": 347,
      ">>UNUSED_336<<": 348,
      ">>UNUSED_337<<": 349,
      ">>UNUSED_338<<": 350,
      ">>UNUSED_339<<": 351,
      ">>UNUSED_340<<": 352,
      ">>UNUSED_341<<": 353,
      ">>UNUSED_342<<": 354,
      ">>UNUSED_343<<": 355,
      ">>UNUSED_344<<": 356,
      ">>UNUSED_345<<": 357,
      ">>UNUSED_346<<": 358,
      ">>UNUSED_347<<": 359,
      ">>UNUSED_348<<": 360,
      ">>UNUSED_349<<": 361,
      ">>UNUSED_350<<": 362,
      ">>UNUSED_351<<": 363,
      ">>UNUSED_352<<": 364,
      ">>UNUSED_353<<": 365,
      ">>UNUSED_354<<": 366,
      ">>UNUSED_355<<": 367,
      ">>UNUSED_356<<": 368,
      ">>UNUSED_357<<": 369,
      ">>UNUSED_358<<": 370,
      ">>UNUSED_359<<": 371,
      ">>UNUSED_360<<": 372,
      ">>UNUSED_361<<": 373,
      ">>UNUSED_362<<": 374,
      ">>UNUSED_363<<": 375,
      ">>UNUSED_364<<": 376,
      ">>UNUSED_365<<": 377,
      ">>UNUSED_366<<": 378,
      ">>UNUSED_367<<": 379,
      ">>UNUSED_368<<": 380,
      ">>UNUSED_369<<": 381,
      ">>UNUSED_370<<": 382,
      ">>UNUSED_371<<": 383,
      ">>UNUSED_372<<": 384,
      ">>UNUSED_373<<": 385,
      ">>UNUSED_374<<": 386,
      ">>UNUSED_375<<": 387,
      ">>UNUSED_376<<": 388,
      ">>UNUSED_377<<": 389,
      ">>UNUSED_378<<": 390,
      ">>UNUSED_379<<": 391,
      ">>UNUSED_380<<": 392,
      ">>UNUSED_381<<": 393,
      ">>UNUSED_382<<": 394,
      ">>UNUSED_383<<": 395,
      ">>UNUSED_384<<": 396,
      ">>UNUSED_385<<": 397,
      ">>UNUSED_386<<": 398,
      ">>UNUSED_387<<": 399,
      ">>UNUSED_388<<": 400,
      ">>UNUSED_389<<": 401,
      ">>UNUSED_390<<": 402,
      ">>UNUSED_391<<": 403,
      ">>UNUSED_392<<": 404,
      ">>UNUSED_393<<": 405,
      ">>UNUSED_394<<": 406,
      ">>UNUSED_395<<": 407,
      ">>UNUSED_396<<": 408,
      ">>UNUSED_397<<": 409,
      ">>UNUSED_398<<": 410,
      ">>UNUSED_399<<": 411,
      ">>UNUSED_400<<": 412,
      ">>UNUSED_401<<": 413,
      ">>UNUSED_402<<": 414,
      ">>UNUSED_403<<": 415,
      ">>UNUSED_404<<": 416,
      ">>UNUSED_405<<": 417,
      ">>UNUSED_406<<": 418,
      ">>UNUSED_407<<": 419,
      ">>UNUSED_408<<": 420,
      ">>UNUSED_409<<": 421,
      ">>UNUSED_410<<": 422,
      ">>UNUSED_411<<": 423,
      ">>UNUSED_412<<": 424,
      ">>UNUSED_413<<": 425,
      ">>UNUSED_414<<": 426,
      ">>UNUSED_415<<": 427,
      ">>UNUSED_416<<": 428,
      ">>UNUSED_417<<": 429,
      ">>UNUSED_418<<": 430,
      ">>UNUSED_419<<": 431,
      ">>UNUSED_420<<": 432,
      ">>UNUSED_421<<": 433,
      ">>UNUSED_422<<": 434,
      ">>UNUSED_423<<": 435,
      ">>UNUSED_424<<": 436,
      ">>UNUSED_425<<": 437,
      ">>UNUSED_426<<": 438,
      ">>UNUSED_427<<": 439,
      ">>UNUSED_428<<": 440,
      ">>UNUSED_429<<": 441,
      ">>UNUSED_430<<": 442,
      ">>UNUSED_431<<": 443,
      ">>UNUSED_432<<": 444,
      ">>UNUSED_433<<": 445,
      ">>UNUSED_434<<": 446,
      ">>UNUSED_435<<": 447,
      ">>UNUSED_436<<": 448,
      ">>UNUSED_437<<": 449,
      ">>UNUSED_438<<": 450,
      ">>UNUSED_439<<": 451,
      ">>UNUSED_440<<": 452,
      ">>UNUSED_441<<": 453,
      ">>UNUSED_442<<": 454,
      ">>UNUSED_443<<": 455,
      ">>UNUSED_444<<": 456,
      ">>UNUSED_445<<": 457,
      ">>UNUSED_446<<": 458,
      ">>UNUSED_447<<": 459,
      ">>UNUSED_448<<": 460,
      ">>UNUSED_449<<": 461,
      ">>UNUSED_450<<": 462,
      ">>UNUSED_451<<": 463,
      ">>UNUSED_452<<": 464,
      ">>UNUSED_453<<": 465,
      ">>UNUSED_454<<": 466,
      ">>UNUSED_455<<": 467,
      ">>UNUSED_456<<": 468,
      ">>UNUSED_457<<": 469,
      ">>UNUSED_458<<": 470,
      ">>UNUSED_459<<": 471,
      ">>UNUSED_460<<": 472,
      ">>UNUSED_461<<": 473,
      ">>UNUSED_462<<": 474,
      ">>UNUSED_463<<": 475,
      ">>UNUSED_464<<": 476,
      ">>UNUSED_465<<": 477,
      ">>UNUSED_466<<": 478,
      ">>UNUSED_467<<": 479,
      ">>UNUSED_468<<": 480,
      ">>UNUSED_469<<": 481,
      ">>UNUSED_470<<": 482,
      ">>UNUSED_471<<": 483,
      ">>UNUSED_472<<": 484,
      ">>UNUSED_473<<": 485,
      ">>UNUSED_474<<": 486,
      ">>UNUSED_475<<": 487,
      ">>UNUSED_476<<": 488,
      ">>UNUSED_477<<": 489,
      ">>UNUSED_478<<": 490,
      ">>UNUSED_479<<": 491,
      ">>UNUSED_480<<": 492,
      ">>UNUSED_481<<": 493,
      ">>UNUSED_482<<": 494,
      ">>UNUSED_483<<": 495,
      ">>UNUSED_484<<": 496,
      ">>UNUSED_485<<": 497,
      ">>UNUSED_486<<": 498,
      ">>UNUSED_487<<": 499,
      ">>UNUSED_488<<": 500,
      ">>UNUSED_489<<": 501,
      ">>UNUSED_490<<": 502,
      ">>UNUSED_491<<": 503,
      ">>UNUSED_492<<": 504,
      ">>UNUSED_493<<": 505,
      ">>UNUSED_494<<": 506,
      ">>UNUSED_495<<": 507,
      ">>UNUSED_496<<": 508,
      ">>UNUSED_497<<": 509,
      ">>UNUSED_498<<": 510,
      ">>UNUSED_499<<": 511,
      ">>UNUSED_500<<": 512,
      ">>UNUSED_501<<": 513,
      ">>UNUSED_502<<": 514,
      ">>UNUSED_503<<": 515,
      ">>UNUSED_504<<": 516,
      ">>UNUSED_505<<": 517,
      ">>UNUSED_506<<": 518,
      ">>UNUSED_507<<": 519,
      ">>UNUSED_508<<": 520,
      ">>UNUSED_509<<": 521,
      ">>UNUSED_510<<": 522,
      ">>UNUSED_511<<": 523,
      "!": 524,
      "\"": 525,
      "#": 526,
      "$": 527,
      "%": 528,
      "&": 529,
      "'": 530,
      "(": 531,
      ")": 532,
      "*": 533,
      "+": 534,
      ",": 535,
      "-": 536,
      ".": 537,
      "/": 538,
      "0": 539,
      "1": 540,
      "2": 541,
      "3": 542,
      "4": 543,
      "5": 544,
      "6": 545,
      "7": 546,
      "8": 547,
      "9": 548,
      ":": 549,
      ";": 550,
      "<": 551,
      "=": 552,
      ">": 553,
      "?": 554,
      "@": 555,
      "A": 556,
      "B": 557,
      "C": 558,
      "D": 559,
      "E": 560,
      "F": 561,
      "G": 562,
      "H": 563,
      "I": 564,
      "J": 565,
      "K": 566,
      "L": 567,
      "M": 568,
      "N": 569,
      "O": 570,
      "P": 571,
      "Q": 572,
      "R": 573,
      "S": 574,
      "T": 575,
      "U": 576,
      "V": 577,
      "W": 578,
      "X": 579,
      "Y": 580,
      "Z": 581,
      "[": 582,
      "\\": 583,
      "]": 584,
      "^": 585,
      "_": 586,
      "`": 587,
      "a": 588,
      "b": 589,
      "c": 590,
      "d": 591,
      "e": 592,
      "f": 593,
      "g": 594,
      "h": 595,
      "i": 596,
      "j": 597,
      "k": 598,
      "l": 599,
      "m": 600,
      "n": 601,
      "o": 602,
      "p": 603,
      "q": 604,
      "r": 605,
      "s": 606,
      "t": 607,
      "u": 608,
      "v": 609,
      "w": 610,
      "x": 611,
      "y": 612,
      "z": 613,
      "{": 614,
      "|": 615,
      "}": 616,
      "~": 617,
      "¡": 618,
      "¢": 619,
      "£": 620,
      "¤": 621,
      "¥": 622,
      "¦": 623,
      "§": 624,
      "¨": 625,
      "©": 626,
      "ª": 627,
      "«": 628,
      "¬": 629,
      "®": 630,
      "¯": 631,
      "°": 632,
      "±": 633,
      "²": 634,
      "³": 635,
      "´": 636,
      "µ": 637,
      "¶": 638,
      "·": 639,
      "¸": 640,
      "¹": 641,
      "º": 642,
      "»": 643,
      "¼": 644,
      "½": 645,
      "¾": 646,
      "¿": 647,
      "Â": 648,
      "Ã": 649,
      "Ä": 650,
      "Å": 651,
      "Æ": 652,
      "Ç": 653,
      "È": 654,
      "É": 655,
      "Ê": 656,
      "Ë": 657,
      "Ì": 658,
      "Í": 659,
      "Î": 660,
      "Ï": 661,
      "Ð": 662,
      "Ñ": 663,
      "Ò": 664,
      "Ó": 665,
      "Ô": 666,
      "Õ": 667,
      "Ö": 668,
      "×": 669,
      "Ø": 670,
      "Ù": 671,
      "Ú": 672,
      "Û": 673,
      "Ü": 674,
      "Ý": 675,
      "Þ": 676,
      "ß": 677,
      "à": 678,
      "á": 679,
      "â": 680,
      "ã": 681,
      "ä": 682,
      "å": 683,
      "æ": 684,
      "ç": 685,
      "è": 686,
      "é": 687,
      "ê": 688,
      "ë": 689,
      "ì": 690,
      "í": 691,
      "î": 692,
      "ï": 693,
      "ð": 694,
      "ñ": 695,
      "ò": 696,
      "ó": 697,
      "ô": 698,
      "Ā": 699,
      "ā": 700,
      "Ă": 701,
      "ă": 702,
      "Ą": 703,
      "ą": 704,
      "Ć": 705,
      "ć": 706,
      "Ĉ": 707,
      "ĉ": 708,
      "Ċ": 709,
      "ċ": 710,
      "Č": 711,
      "č": 712,
      "Ď": 713,
      "ď": 714,
      "Đ": 715,
      "đ": 716,
      "Ē": 717,
      "ē": 718,
      "Ĕ": 719,
      "ĕ": 720,
      "Ė": 721,
      "ė": 722,
      "Ę": 723,
      "ę": 724,
      "Ě": 725,
      "ě": 726,
      "Ĝ": 727,
      "ĝ": 728,
      "Ğ": 729,
      "ğ": 730,
      "Ġ": 731,
      "ġ": 732,
      "Ģ": 733,
      "ģ": 734,
      "Ĥ": 735,
      "ĥ": 736,
      "Ħ": 737,
      "ħ": 738,
      "Ĩ": 739,
      "ĩ": 740,
      "Ī": 741,
      "ī": 742,
      "Ĭ": 743,
      "ĭ": 744,
      "Į": 745,
      "į": 746,
      "İ": 747,
      "ı": 748,
      "Ĳ": 749,
      "ĳ": 750,
      "Ĵ": 751,
      "ĵ": 752,
      "Ķ": 753,
      "ķ": 754,
      "ĸ": 755,
      "Ĺ": 756,
      "ĺ": 757,
      "Ļ": 758,
      "ļ": 759,
      "Ľ": 760,
      "ľ": 761,
      "Ŀ": 762,
      "ŀ": 763,
      "Ł": 764,
      "ł": 765,
      "Ń": 766,
      "ĠĠ": 767,
      "ĠĠĠĠ": 768,
      "in": 769,
      "Ġt": 770,
      "er": 771,
      "ĠĠĠĠĠĠĠĠ": 772,
      "on": 773,
      "Ġa": 774,
      "re": 775,
      "at": 776,
      "he": 777,
      "en": 778,
      "or": 779,
      "st": 780,
      "al": 781,
      "le": 782,
      "ĠĠĠ": 783,
      "Ġthe": 784,
      "Ġc": 785,
      "it": 786,
      "--": 787,
      "an": 788,
      "ar": 789,
      "Ġs": 790,
      "es": 791,
      "ion": 792,
      "Ġf": 793,
      "Ġo": 794,
      "Ġp": 795,
      "ing": 796,
      "ro": 797,
      "ed": 798,
      "is": 799,
      "ct": 800,
      "Ġw": 801,
      "Ġb": 802,
      "ĉĉ": 803,
      "nd": 804,
      "ĊĊ": 805,
      "ic": 806,
      "et": 807,
      "Ġm": 808,
      "Ġin": 809,
      "Ġd": 810,
      "ou": 811,
      "ent": 812,
      "Ġof": 813,
      "se": 814,
      "ĠĠĠĠĠĠĠĠĠĠĠĠĠĠĠĠ": 815,
      "čĊ": 816,
      "Ġto": 817,
      "id": 818,
      "am": 819,
      "----": 820,
      "Ġn": 821,
      "ol": 822,
      "Ġand": 823,
      "om": 824,
      "ac": 825,
      "Ġre": 826,
      "ut": 827,
      "Ġe": 828,
      "im": 829,
      "**": 830,
      "as": 831,
      "il": 832,
      "ig": 833,
      "lo": 834,
      "FF": 835,
      "ĠT": 836,
      "ad": 837,
      "if": 838,
      "Ġh": 839,
      "Ġth": 840,
      "ur": 841,
      "el": 842,
      "==": 843,
      "ot": 844,
      "ĠS": 845,
      "iv": 846,
      "ĠĠĠĠĠĠĠ": 847,
      "un": 848,
      "ation": 849,
      "od": 850,
      "ag": 851,
      "ĠC": 852,
      "ĠĠĠĠĠ": 853,
      "ĠA": 854,
      "ĠI": 855,
      "ul": 856,
      "ate": 857,
      "pe": 858,
      "Ġl": 859,
      "Ġis": 860,
      "te": 861,
      ");": 862,
      "us": 863,
      "th": 864,
      "ce": 865,
      "ue": 866,
      "tr": 867,
      "Ġg": 868,
      "Ġv": 869,
      "//": 870,
      "Ġst": 871,
      "um": 872,
      "ab": 873,
      "ch": 874,
      "ay": 875,
      "end": 876,
      "em": 877,
      "Ġfor": 878,
      "ist": 879,
      "--------": 880,
      "ter": 881,
      "ver": 882,
      "##": 883,
      "ht": 884,
      "ly": 885,
      "ap": 886,
      "ir": 887,
      "ction": 888,
      "ame": 889,
      "Ġbe": 890,
      "ow": 891,
      "Ġcon": 892,
      "ĠP": 893,
      "res": 894,
      "op": 895,
      "),": 896,
      "ers": 897,
      "int": 898,
      "nt": 899,
      "ve": 900,
      "ex": 901,
      "ef": 902,
      "ith": 903,
      "ĠD": 904,
      "AA": 905,
      "****": 906,
      "ĉĉĉĉ": 907,
      "ĠM": 908,
      "ĠF": 909,
      "Ġon": 910,
      "ight": 911,
      "pt": 912,
      "=\"": 913,
      "->": 914,
      "qu": 915,
      "::": 916,
      "Ġy": 917,
      "ine": 918,
      "ĠR": 919,
      "os": 920,
      "ri": 921,
      "Ġpro": 922,
      "up": 923,
      "Ġr": 924,
      "ĠB": 925,
      "age": 926,
      "pl": 927,
      "and": 928,
      "px": 929,
      "ort": 930,
      "Ġex": 931,
      "ub": 932,
      "ĠE": 933,
      "ess": 934,
      "Ġthat": 935,
      "ile": 936,
      "con": 937,
      "iz": 938,
      "====": 939,
      "ore": 940,
      "ĠN": 941,
      "ĠL": 942,
      "ew": 943,
      "ect": 944,
      "ype": 945,
      "ĠĠĠĠĠĠĠĠĠĠĠ": 946,
      "ack": 947,
      "Ġas": 948,
      "ain": 949,
      "urn": 950,
      "Ġwith": 951,
      "ata": 952,
      "FFFF": 953,
      "Ġan": 954,
      "Ġwh": 955,
      "able": 956,
      "ff": 957,
      "our": 958,
      "ment": 959,
      "ity": 960,
      "Ġal": 961,
      "))": 962,
      "ass": 963,
      "Ġor": 964,
      "ke": 965,
      "\",": 966,
      "Ġif": 967,
      "ult": 968,
      "ĠW": 969,
      "act": 970,
      "oc": 971,
      "orm": 972,
      ").": 973,
      "ure": 974,
      "ive": 975,
      "SS": 976,
      "art": 977,
      "und": 978,
      "Ġit": 979,
      "turn": 980,
      "ib": 981,
      "est": 982,
      "ord": 983,
      "ĠĠĠĠĠĠĠĠĠĠĠĠ": 984,
      "rom": 985,
      "ind": 986,
      "ec": 987,
      "alue": 988,
      "ant": 989,
      "ies": 990,
      "port": 991,
      "ĠG": 992,
      "ans": 993,
      "ud": 994,
      "Ġcom": 995,
      "Ġle": 996,
      "DD": 997,
      "Ġare": 998,
      "all": 999,
      "ere": 1000,
      "ĠH": 1001,
      "</": 1002,
      "In": 1003,
      "ang": 1004,
      "per": 1005,
      "str": 1006,
      "ĠThe": 1007,
      "Ġtr": 1008,
      "Ġby": 1009,
      "ĠO": 1010,
      "âĢ": 1011,
      "cl": 1012,
      "xt": 1013,
      ":=": 1014,
      "arg": 1015,
      "----------------": 1016,
      "####": 1017,
      "ial": 1018,
      "ld": 1019,
      "ition": 1020,
      "()": 1021,
      "ase": 1022,
      "to": 1023,
      "ep": 1024,
      "out": 1025,
      "WW": 1026,
      "ck": 1027,
      "ip": 1028,
      "og": 1029,
      "err": 1030,
      "pro": 1031,
      "unction": 1032,
      "are": 1033,
      "ath": 1034,
      "ode": 1035,
      "ize": 1036,
      "dd": 1037,
      "ill": 1038,
      "fr": 1039,
      "..": 1040,
      "ont": 1041,
      "cc": 1042,
      "ress": 1043,
      "Ġch": 1044,
      "(\"": 1045,
      "Ġhe": 1046,
      "Ġwe": 1047,
      "put": 1048,
      "Ġend": 1049,
      "text": 1050,
      "Ġnot": 1051,
      "ft": 1052,
      "ite": 1053,
      "ER": 1054,
      "ĠĠĠĠĠĠĠĠĠĠĠĠĠĠĠĠĠĠĠĠĠĠĠĠĠĠĠĠĠĠĠĠ": 1055,
      "av": 1056,
      "********": 1057,
      "bj": 1058,
      "ire": 1059,
      "Ġat": 1060,
      "ign": 1061,
      "ime": 1062,
      "',": 1063,
      "Ġfrom": 1064,
      "ĠU": 1065,
      "bo": 1066,
      "ok": 1067,
      "ĠĠĠĠĠĠ": 1068,
      "IN": 1069,
      "Ġthis": 1070,
      "form": 1071,
      "olor": 1072,
      "ast": 1073,
      "=>": 1074,
      "ber": 1075,
      "Ġcl": 1076,
      "eg": 1077,
      "ave": 1078,
      "Ġsh": 1079,
      "St": 1080,
      "ace": 1081,
      "Ġu": 1082,
      "Ġx": 1083,
      "com": 1084,
      "ple": 1085,
      "ust": 1086,
      "rr": 1087,
      "\">": 1088,
      "ount": 1089,
      "ost": 1090,
      "}{": 1091,
      "low": 1092,
      "ĠĊ": 1093,
      "ard": 1094,
      "ss": 1095,
      "Ġstr": 1096,
      "Ġcan": 1097,
      "ide": 1098,
      "ice": 1099,
      "ĉĉĉ": 1100,
      "Ġse": 1101,
      "__": 1102,
      "ext": 1103,
      "ical": 1104,
      "Name": 1105,
      "aram": 1106,
      "one": 1107,
      "========": 1108,
      "frac": 1109,
      "Ġk": 1110,
      "ated": 1111,
      "Ġreturn": 1112,
      "\\(": 1113,
      "ma": 1114,
      "Id": 1115,
      "ĠIn": 1116,
      "Ġus": 1117,
      "sp": 1118,
      "ary": 1119,
      "round": 1120,
      "add": 1121,
      "ĠV": 1122,
      "ory": 1123,
      "Ġlo": 1124,
      "ug": 1125,
      "ser": 1126,
      "ach": 1127,
      "uct": 1128,
      "ON": 1129,
      "},": 1130,
      "ens": 1131,
      "Ġim": 1132,
      "Ġj": 1133,
      "($": 1134,
      "ance": 1135,
      "ĠĠĠĠĠĠĠĠĠ": 1136,
      "Con": 1137,
      "Ġyou": 1138,
      "Ġun": 1139,
      "EN": 1140,
      "ev": 1141,
      "over": 1142,
      "ations": 1143,
      "ould": 1144,
      "ents": 1145,
      "sc": 1146,
      "que": 1147,
      "%%": 1148,
      "Ġi": 1149,
      "ence": 1150,
      "ĠĠĠĠĠĠĠĠĠĠĠĠĠĠĠ": 1151,
      "pr": 1152,
      "ak": 1153,
      "we": 1154,
      "Ġdo": 1155,
      "ions": 1156,
      "Ġhave": 1157,
      "ĠTh": 1158,
      "idth": 1159,
      "ild": 1160,
      "AL": 1161,
      "ms": 1162,
      "gr": 1163,
      "Ġpr": 1164,
      "row": 1165,
      "ork": 1166,
      "set": 1167,
      "hen": 1168,
      "čĊčĊ": 1169,
      "ĠJ": 1170,
      "ich": 1171,
      "AAAA": 1172,
      "AT": 1173,
      "Ġerr": 1174,
      "Ġcont": 1175,
      "Type": 1176,
      "AR": 1177,
      "Ġfunction": 1178,
      "Ġwas": 1179,
      "ome": 1180,
      "Ġclass": 1181,
      "eng": 1182,
      "Ġdis": 1183,
      "Ġab": 1184,
      "bject": 1185,
      "ong": 1186,
      "ell": 1187,
      "get": 1188,
      "\")": 1189,
      "tring": 1190,
      "Re": 1191,
      "}.": 1192,
      "div": 1193,
      "fer": 1194,
      "name": 1195,
      "Ġpl": 1196,
      "ail": 1197,
      "Ġap": 1198,
      "Ġthen": 1199,
      "Ġres": 1200,
      "cont": 1201,
      "fo": 1202,
      "Pro": 1203,
      "ia": 1204,
      "umber": 1205,
      "ground": 1206,
      "yst": 1207,
      "return": 1208,
      "Ġint": 1209,
      "order": 1210,
      "*/": 1211,
      "ute": 1212,
      "ther": 1213,
      "DE": 1214,
      "ual": 1215,
      "line": 1216,
      "sh": 1217,
      "ST": 1218,
      "clud": 1219,
      "right": 1220,
      "],": 1221,
      "pec": 1222,
      "OR": 1223,
      "ge": 1224,
      "ger": 1225,
      "ll": 1226,
      "ient": 1227,
      "val": 1228,
      "Ġvalue": 1229,
      "enc": 1230,
      "########": 1231,
      "ear": 1232,
      "Data": 1233,
      "ackground": 1234,
      "\\)": 1235,
      "ĠSt": 1236,
      "her": 1237,
      "import": 1238,
      "iel": 1239,
      "rite": 1240,
      "old": 1241,
      "rt": 1242,
      "The": 1243,
      "ound": 1244,
      "ous": 1245,
      "own": 1246,
      "ool": 1247,
      "ule": 1248,
      "lect": 1249,
      "Ġsc": 1250,
      "ript": 1251,
      "Ġper": 1252,
      "tern": 1253,
      "ree": 1254,
      "Ex": 1255,
      "oint": 1256,
      "\\[": 1257,
      "color": 1258,
      "ield": 1259,
      "quest": 1260,
      "ystem": 1261,
      "\\]": 1262,
      "FFFFFFFF": 1263,
      "RE": 1264,
      "aw": 1265,
      "pos": 1266,
      "lock": 1267,
      "ax": 1268,
      "Ġde": 1269,
      "ĠĠĠĠĠĠĠĠĠĠĠĠĠĠĠĠĠĠĠ": 1270,
      "Ġhas": 1271,
      "lic": 1272,
      "ĉif": 1273,
      "roup": 1274,
      "Ġwhich": 1275,
      "argin": 1276,
      "Ġadd": 1277,
      "type": 1278,
      "Ġall": 1279,
      "ph": 1280,
      "Ġout": 1281,
      "\";": 1282,
      "ake": 1283,
      "LE": 1284,
      "def": 1285,
      "Ġel": 1286,
      "ĉreturn": 1287,
      "data": 1288,
      "ry": 1289,
      "so": 1290,
      "ener": 1291,
      "ID": 1292,
      "ert": 1293,
      "Res": 1294,
      "iew": 1295,
      "Ġwill": 1296,
      "test": 1297,
      "IT": 1298,
      "AC": 1299,
      "ors": 1300,
      "left": 1301,
      "fig": 1302,
      "ĠK": 1303,
      "irst": 1304,
      "min": 1305,
      "ange": 1306,
      "ix": 1307,
      "SE": 1308,
      "Ġtheir": 1309,
      "Ġval": 1310,
      "size": 1311,
      "essage": 1312,
      "ink": 1313,
      "ne": 1314,
      "ari": 1315,
      "eter": 1316,
      "Ġstring": 1317,
      "String": 1318,
      "ty": 1319,
      "$\\": 1320,
      "Ġset": 1321,
      "unc": 1322,
      "Ġget": 1323,
      "sel": 1324,
      "ater": 1325,
      "--------------------------------": 1326,
      "use": 1327,
      "ull": 1328,
      "Ġpos": 1329,
      "****************": 1330,
      "pon": 1331,
      "IC": 1332,
      "heck": 1333,
      "box": 1334,
      "alse": 1335,
      "Ġpre": 1336,
      "ource": 1337,
      "mp": 1338,
      "Value": 1339,
      "Ġmy": 1340,
      "Ġup": 1341,
      "Ġone": 1342,
      "/*": 1343,
      "Ġsu": 1344,
      "Ġne": 1345,
      "eth": 1346,
      "ced": 1347,
      "Ġsub": 1348,
      "Com": 1349,
      "('": 1350,
      "Ġro": 1351,
      "key": 1352,
      "ings": 1353,
      "led": 1354,
      "Ġsol": 1355,
      "Ġover": 1356,
      "Ġnew": 1357,
      "Ġname": 1358,
      "Ġsp": 1359,
      "ates": 1360,
      "âĢĻ": 1361,
      "ble": 1362,
      "oid": 1363,
      "ative": 1364,
      "Ġbut": 1365,
      "Ġme": 1366,
      "Ġelse": 1367,
      "reate": 1368,
      "ps": 1369,
      "Ġli": 1370,
      "Ġund": 1371,
      "ength": 1372,
      "rg": 1373,
      "Ġso": 1374,
      "Ġthey": 1375,
      "Ġdata": 1376,
      "trib": 1377,
      "Ġtrans": 1378,
      "Ġinter": 1379,
      "rap": 1380,
      "Ġtype": 1381,
      "\":": 1382,
      "play": 1383,
      "ov": 1384,
      "file": 1385,
      "Ġyour": 1386,
      "Ġman": 1387,
      "Ġid": 1388,
      "teger": 1389,
      "ark": 1390,
      "ose": 1391,
      "Ġnumber": 1392,
      "}$": 1393,
      "ific": 1394,
      "cept": 1395,
      "Ġuse": 1396,
      "clude": 1397,
      "du": 1398,
      ")*": 1399,
      "Ġmore": 1400,
      "Ch": 1401,
      "sub": 1402,
      "vent": 1403,
      "Ġtime": 1404,
      "ĠĠĠĠĠĠĠĠĠĠ": 1405,
      "UT": 1406,
      "List": 1407,
      "li": 1408,
      "efore": 1409,
      "esc": 1410,
      "pect": 1411,
      "atch": 1412,
      "Ġz": 1413,
      "Ġwhen": 1414,
      "erv": 1415,
      "adding": 1416,
      "les": 1417,
      "ton": 1418,
      "Ġpart": 1419,
      "rit": 1420,
      "ery": 1421,
      "AB": 1422,
      "not": 1423,
      "AN": 1424,
      "trans": 1425,
      "================": 1426,
      "DDDD": 1427,
      "ader": 1428,
      "cal": 1429,
      "Ġcomm": 1430,
      "log": 1431,
      "Ġuint": 1432,
      "io": 1433,
      "Err": 1434,
      "mod": 1435,
      "To": 1436,
      "Th": 1437,
      "Ġlet": 1438,
      "SSSS": 1439,
      "WWWW": 1440,
      "ys": 1441,
      "AM": 1442,
      "quire": 1443,
      "urre": 1444,
      "${": 1445,
      "width": 1446,
      "ublic": 1447,
      "Ġen": 1448,
      "ĠThis": 1449,
      "ick": 1450,
      "Ġstud": 1451,
      "At": 1452,
      "ays": 1453,
      "ner": 1454,
      "};": 1455,
      "Ġnil": 1456,
      "ĉĉĉĉĉĉĉĉ": 1457,
      "ample": 1458,
      "string": 1459,
      "ues": 1460,
      "wo": 1461,
      "function": 1462,
      "[]": 1463,
      "col": 1464,
      "self": 1465,
      "((": 1466,
      "ject": 1467,
      "top": 1468,
      "ator": 1469,
      "ely": 1470,
      "hed": 1471,
      "atus": 1472,
      "ody": 1473,
      "enter": 1474,
      "ĠĠĠĠĠĠĠĠĠĠĠĠĠĠĠĠĠĠĠĠ": 1475,
      "ott": 1476,
      "ault": 1477,
      "Set": 1478,
      "ating": 1479,
      "////": 1480,
      "var": 1481,
      "Path": 1482,
      "Ġdef": 1483,
      "ref": 1484,
      "app": 1485,
      "File": 1486,
      "ob": 1487,
      "ish": 1488,
      "item": 1489,
      "Cl": 1490,
      "ym": 1491,
      "af": 1492,
      "AD": 1493,
      "_{": 1494,
      "lement": 1495,
      "Get": 1496,
      "imes": 1497,
      "ng": 1498,
      "read": 1499,
      "ccess": 1500,
      "list": 1501,
      "Ġinto": 1502,
      "Ġother": 1503,
      "Ġrel": 1504,
      "ĠY": 1505,
      "abel": 1506,
      "ED": 1507,
      "tem": 1508,
      "Ġunder": 1509,
      "^{": 1510,
      "sq": 1511,
      "!=": 1512,
      "ĠCh": 1513,
      "):": 1514,
      "Ġad": 1515,
      "red": 1516,
      "qual": 1517,
      "Ġcol": 1518,
      "Ġabout": 1519,
      "ml": 1520,
      "ĠCon": 1521,
      "Ġmod": 1522,
      "ĠĠĠĠĠĠĠĠĠĠĠĠĠĠĠĠĠĠ": 1523,
      "Ġform": 1524,
      "ION": 1525,
      "cess": 1526,
      "tract": 1527,
      "its": 1528,
      "ET": 1529,
      "Ġwork": 1530,
      "Ġfile": 1531,
      "loat": 1532,
      "!!": 1533,
      "ible": 1534,
      "rray": 1535,
      "ĠĠĠĠĠĠĠĠĠĠĠĠĠ": 1536,
      "nc": 1537,
      "plic": 1538,
      "Ġspec": 1539,
      "son": 1540,
      "RO": 1541,
      "but": 1542,
      "ied": 1543,
      "Param": 1544,
      "Ġconst": 1545,
      "Ġte": 1546,
      "\"\"": 1547,
      "Ġthese": 1548,
      "Ġind": 1549,
      "iss": 1550,
      "ics": 1551,
      "of": 1552,
      "CC": 1553,
      "func": 1554,
      "Ġonly": 1555,
      "arn": 1556,
      "eb": 1557,
      "Add": 1558,
      "arch": 1559,
      "})": 1560,
      "param": 1561,
      "Ġbeg": 1562,
      "$,": 1563,
      "ĠPro": 1564,
      "ify": 1565,
      "ole": 1566,
      "tp": 1567,
      "date": 1568,
      "inter": 1569,
      "bt": 1570,
      "Ġwere": 1571,
      "EC": 1572,
      "yle": 1573,
      "dis": 1574,
      "ey": 1575,
      "Object": 1576,
      "Ġthan": 1577,
      "ottom": 1578,
      "Int": 1579,
      "Ġcall": 1580,
      "ces": 1581,
      "Ġam": 1582,
      "ood": 1583,
      "ie": 1584,
      "inal": 1585,
      "Ġmay": 1586,
      "urrent": 1587,
      "')": 1588,
      "ock": 1589,
      "Ġbackground": 1590,
      "opt": 1591,
      "md": 1592,
      "rem": 1593,
      "td": 1594,
      "value": 1595,
      "for": 1596,
      "ense": 1597,
      "Ġrec": 1598,
      "Ġneed": 1599,
      "Cont": 1600,
      "ugh": 1601,
      "ities": 1602,
      "Ġalso": 1603,
      "uild": 1604,
      "Ġkn": 1605,
      "ames": 1606,
      "ages": 1607,
      "rc": 1608,
      "content": 1609,
      "duct": 1610,
      "Ġits": 1611,
      "Ġany": 1612,
      "rad": 1613,
      "Ġcomp": 1614,
      "Ġev": 1615,
      "Ġthem": 1616,
      "ian": 1617,
      "Ġbo": 1618,
      "Ġop": 1619,
      "ternal": 1620,
      "egin": 1621,
      "Ġno": 1622,
      "ĠUn": 1623,
      "Ġfirst": 1624,
      "Error": 1625,
      "Ġbet": 1626,
      "oth": 1627,
      "iven": 1628,
      "Ġtext": 1629,
      "Ġexp": 1630,
      "ash": 1631,
      "cd": 1632,
      "sum": 1633,
      "ethod": 1634,
      "Ġthere": 1635,
      "yp": 1636,
      "Ġsome": 1637,
      "obj": 1638,
      "Ġem": 1639,
      "\");": 1640,
      "Ġcal": 1641,
      "igh": 1642,
      "itle": 1643,
      "Ġeach": 1644,
      "olog": 1645,
      "%;": 1646,
      "the": 1647,
      "tribute": 1648,
      "$.": 1649,
      "ĠRes": 1650,
      "ĠGet": 1651,
      "my": 1652,
      "ĠIN": 1653,
      "Ġlist": 1654,
      "ra": 1655,
      "Ġtrue": 1656,
      "fl": 1657,
      "Ġdif": 1658,
      "Ġhow": 1659,
      "der": 1660,
      "ĠCom": 1661,
      "Un": 1662,
      "Ġresult": 1663,
      "ĠĠĠĠĠĠĠĠĠĠĠĠĠĠ": 1664,
      "ility": 1665,
      "Ġhis": 1666,
      "++": 1667,
      "by": 1668,
      "arent": 1669,
      "ask": 1670,
      "face": 1671,
      "ise": 1672,
      "Ġtest": 1673,
      "Ġwhere": 1674,
      "Ġbegin": 1675,
      "Ġmem": 1676,
      "Ġfind": 1677,
      "Ġcolor": 1678,
      "rol": 1679,
      "sqrt": 1680,
      "AS": 1681,
      "(-": 1682,
      "opy": 1683,
      "Ġreal": 1684,
      "Ġmargin": 1685,
      "atic": 1686,
      "ĊĊĊ": 1687,
      "ĠX": 1688,
      "loc": 1689,
      "irect": 1690,
      "ices": 1691,
      "ĠIt": 1692,
      "cond": 1693,
      "UL": 1694,
      "].": 1695,
      "Ġpe": 1696,
      "input": 1697,
      "cedure": 1698,
      "ND": 1699,
      "oug": 1700,
      "ular": 1701,
      "web": 1702,
      "Ġtwo": 1703,
      "rough": 1704,
      "();": 1705,
      "Ġrem": 1706,
      "ns": 1707,
      "$$": 1708,
      "uth": 1709,
      "ee": 1710,
      "Ġshould": 1711,
      "Ġsuch": 1712,
      "Ġag": 1713,
      "ctions": 1714,
      "let": 1715,
      "Ġreg": 1716,
      "Ġpublic": 1717,
      "Ġco": 1718,
      "ider": 1719,
      "Ġqu": 1720,
      "Tr": 1721,
      "cre": 1722,
      "perty": 1723,
      "Ġdec": 1724,
      "Ġdist": 1725,
      ",.": 1726,
      "ution": 1727,
      "max": 1728,
      "begin": 1729,
      "Ġline": 1730,
      "])": 1731,
      "ption": 1732,
      "://": 1733,
      "ause": 1734,
      "################": 1735,
      "ars": 1736,
      "font": 1737,
      "oun": 1738,
      "Ġfont": 1739,
      "uff": 1740,
      "ES": 1741,
      "ines": 1742,
      "Ġsup": 1743,
      "pp": 1744,
      "];": 1745,
      "idd": 1746,
      "Ġborder": 1747,
      "||": 1748,
      "{$": 1749,
      "Ġread": 1750,
      "Ġyear": 1751,
      "IS": 1752,
      "Ġpoint": 1753,
      "ature": 1754,
      "ote": 1755,
      "ons": 1756,
      ")=": 1757,
      "MP": 1758,
      "Ġsim": 1759,
      "FE": 1760,
      "Ġwho": 1761,
      "Ġph": 1762,
      "Mod": 1763,
      "ures": 1764,
      "Ġact": 1765,
      "ender": 1766,
      "background": 1767,
      "eta": 1768,
      "be": 1769,
      "Ġwidth": 1770,
      "Ġprov": 1771,
      "sol": 1772,
      "Info": 1773,
      "Ġused": 1774,
      "print": 1775,
      "lex": 1776,
      "AP": 1777,
      "Ġerror": 1778,
      "ily": 1779,
      "height": 1780,
      "time": 1781,
      "fter": 1782,
      "border": 1783,
      "new": 1784,
      "margin": 1785,
      "Ġright": 1786,
      "En": 1787,
      "Ind": 1788,
      "Ġmin": 1789,
      "ĠEx": 1790,
      "ĠRe": 1791,
      "ĉĉĉĉĉ": 1792,
      "kit": 1793,
      "work": 1794,
      "UR": 1795,
      "...": 1796,
      "\"\\": 1797,
      "ĠQ": 1798,
      "Ġchar": 1799,
      "ier": 1800,
      "<<": 1801,
      "ta": 1802,
      "bar": 1803,
      "}\\": 1804,
      "LO": 1805,
      "AG": 1806,
      "CO": 1807,
      "mer": 1808,
      "Ġbeen": 1809,
      "Ġacc": 1810,
      "Ġour": 1811,
      "ĠIf": 1812,
      "ove": 1813,
      "ined": 1814,
      "load": 1815,
      "void": 1816,
      "ersion": 1817,
      "pty": 1818,
      "Ġaddress": 1819,
      "``": 1820,
      "important": 1821,
      "ollow": 1822,
      "arget": 1823,
      "uint": 1824,
      "als": 1825,
      "Ġrequire": 1826,
      "Ġposition": 1827,
      "irc": 1828,
      "reat": 1829,
      "By": 1830,
      "TE": 1831,
      "ople": 1832,
      "Ġĉ": 1833,
      "arr": 1834,
      "/>": 1835,
      "pi": 1836,
      "struct": 1837,
      "erm": 1838,
      "ade": 1839,
      "ational": 1840,
      "resent": 1841,
      "hes": 1842,
      "FFFFFFFFFFFFFFFF": 1843,
      "âĢľ": 1844,
      "([": 1845,
      "ream": 1846,
      "ween": 1847,
      "ale": 1848,
      "âĢĿ": 1849,
      "bottom": 1850,
      "Ġlike": 1851,
      "ists": 1852,
      "tes": 1853,
      "const": 1854,
      "ince": 1855,
      "nav": 1856,
      "br": 1857,
      "Key": 1858,
      "Ġthrough": 1859,
      "Sc": 1860,
      "Ġwould": 1861,
      "Ġdiffer": 1862,
      "ument": 1863,
      "uf": 1864,
      "ments": 1865,
      "webkit": 1866,
      "velo": 1867,
      "';": 1868,
      "Ġequ": 1869,
      "lp": 1870,
      "DB": 1871,
      "Ġcontent": 1872,
      "IF": 1873,
      "Sh": 1874,
      "ful": 1875,
      "Ġvari": 1876,
      "Se": 1877,
      "Ġobject": 1878,
      "ased": 1879,
      "define": 1880,
      "align": 1881,
      "ases": 1882,
      "\\<": 1883,
      "Ġdiv": 1884,
      "Ġusing": 1885,
      "}}": 1886,
      "ww": 1887,
      "icon": 1888,
      "Im": 1889,
      "els": 1890,
      "TR": 1891,
      "Ġvar": 1892,
      "AAAAAAAA": 1893,
      ":#": 1894,
      "Ġfalse": 1895,
      "air": 1896,
      "Ġtop": 1897,
      "uc": 1898,
      "///": 1899,
      "ĠNew": 1900,
      "ower": 1901,
      "Time": 1902,
      "formation": 1903,
      "State": 1904,
      "ĠTH": 1905,
      "before": 1906,
      "url": 1907,
      "bl": 1908,
      "ken": 1909,
      "->{": 1910,
      "IM": 1911,
      "oken": 1912,
      "vert": 1913,
      "position": 1914,
      "Ag": 1915,
      "ĠTr": 1916,
      "Ġâ": 1917,
      "Ġcase": 1918,
      "pre": 1919,
      "map": 1920,
      "ĠHe": 1921,
      "orld": 1922,
      "ward": 1923,
      "&&": 1924,
      "Ġfe": 1925,
      "Ġdr": 1926,
      "Ġhad": 1927,
      "uring": 1928,
      "FD": 1929,
      "Ġwhat": 1930,
      "ern": 1931,
      "Ġmany": 1932,
      "CH": 1933,
      "sw": 1934,
      "uto": 1935,
      "ĠĠĠĠĠĠĠĠĠĠĠĠĠĠĠĠĠĠĠĠĠĠĠĠ": 1936,
      "|>": 1937,
      "ponse": 1938,
      "ĠĠĠĠĠĠĠĠĠĠĠĠĠĠĠĠĠĠĠĠĠĠĠ": 1939,
      "FB": 1940,
      "Ġinteger": 1941,
      "Ġfollow": 1942,
      "index": 1943,
      "ffect": 1944,
      "Ġbetween": 1945,
      "He": 1946,
      "Ġever": 1947,
      "tal": 1948,
      "mt": 1949,
      "bal": 1950,
      "ann": 1951,
      "ement": 1952,
      "ict": 1953,
      ".\"": 1954,
      "serv": 1955,
      "ector": 1956,
      "sl": 1957,
      "Ġpadding": 1958,
      "Ġpeople": 1959,
      "Ġdep": 1960,
      "velop": 1961,
      "MA": 1962,
      "Config": 1963,
      "Ġpol": 1964,
      "Ġstart": 1965,
      "ĠÐ": 1966,
      "ential": 1967,
      "ĠĠĊ": 1968,
      "ious": 1969,
      "ift": 1970,
      "ENT": 1971,
      "Ġmake": 1972,
      "Ġinst": 1973,
      "CE": 1974,
      "ren": 1975,
      "Ġleft": 1976,
      "table": 1977,
      "Ġnum": 1978,
      "reg": 1979,
      "Text": 1980,
      "Request": 1981,
      "enu": 1982,
      "%>": 1983,
      "Ġsm": 1984,
      "search": 1985,
      "Out": 1986,
      "block": 1987,
      "ply": 1988,
      "cul": 1989,
      "ited": 1990,
      "Ġgr": 1991,
      "bers": 1992,
      "ains": 1993,
      "ĠFor": 1994,
      "ĠIF": 1995,
      "ivate": 1996,
      "btn": 1997,
      "Test": 1998,
      "System": 1999,
      "ius": 2000,
      "icense": 2001,
      "Ġsystem": 2002,
      "Ġstruct": 2003,
      "ele": 2004,
      "Ġgener": 2005,
      "ocus": 2006,
      "Index": 2007,
      "eq": 2008,
      "gram": 2009,
      "alth": 2010,
      "Item": 2011,
      "ized": 2012,
      "head": 2013,
      "aint": 2014,
      "Ġknow": 2015,
      "OT": 2016,
      "ervice": 2017,
      "IG": 2018,
      "CT": 2019,
      "count": 2020,
      "Ġmust": 2021,
      "message": 2022,
      "chool": 2023,
      "atri": 2024,
      "ilter": 2025,
      "Ġfun": 2026,
      "yn": 2027,
      "error": 2028,
      "raph": 2029,
      "FC": 2030,
      "indow": 2031,
      "ba": 2032,
      "Ġcor": 2033,
      "Ġfl": 2034,
      "ives": 2035,
      "Ġsize": 2036,
      "$(": 2037,
      "Ġtotal": 2038,
      "lib": 2039,
      "*)": 2040,
      "times": 2041,
      "Ġstudents": 2042,
      "Ġjust": 2043,
      "include": 2044,
      "Ġoff": 2045,
      "angle": 2046,
      "{\\": 2047,
      "erver": 2048,
      "med": 2049,
      "info": 2050,
      "UN": 2051,
      "<%": 2052,
      "script": 2053,
      "Ġgo": 2054,
      "Ġprint": 2055,
      "Ġparam": 2056,
      "ank": 2057,
      "class": 2058,
      "par": 2059,
      "ĠĠĠĠĠĠĠĠĠĠĠĠĠĠĠĠĠ": 2060,
      "bin": 2061,
      "Ġstate": 2062,
      "ackage": 2063,
      ")+": 2064,
      "Ġac": 2065,
      "Ġcons": 2066,
      "true": 2067,
      "ainer": 2068,
      "(_": 2069,
      "group": 2070,
      "atrix": 2071,
      "escript": 2072,
      "itial": 2073,
      "ALL": 2074,
      "fore": 2075,
      "ting": 2076,
      "Ġreturns": 2077,
      "Ġkey": 2078,
      "Token": 2079,
      "Ġwrite": 2080,
      "Ġheight": 2081,
      "Ġq": 2082,
      "FA": 2083,
      "ĠSet": 2084,
      "sg": 2085,
      "sm": 2086,
      ")^": 2087,
      "label": 2088,
      "Ġmax": 2089,
      "\\\\": 2090,
      "));": 2091,
      "path": 2092,
      "anc": 2093,
      "padding": 2094,
      "ural": 2095,
      "less": 2096,
      "For": 2097,
      "Ġboth": 2098,
      "Ġbec": 2099,
      "lose": 2100,
      "user": 2101,
      "Ġmost": 2102,
      "Ġed": 2103,
      "EE": 2104,
      "chn": 2105,
      "Ġgiven": 2106,
      "IP": 2107,
      "amp": 2108,
      "ush": 2109,
      "********************************": 2110,
      "(),": 2111,
      "Ġnone": 2112,
      "stand": 2113,
      "Al": 2114,
      "ĉc": 2115,
      "body": 2116,
      "Size": 2117,
      "button": 2118,
      "igned": 2119,
      "#,": 2120,
      "Ġass": 2121,
      "Ġdisplay": 2122,
      "%%%%": 2123,
      "eters": 2124,
      "Ġarg": 2125,
      "word": 2126,
      "Array": 2127,
      "Or": 2128,
      "mon": 2129,
      "oci": 2130,
      "wh": 2131,
      "msg": 2132,
      "vers": 2133,
      "Ġchild": 2134,
      "ants": 2135,
      "Ġlong": 2136,
      "Ġfound": 2137,
      "hover": 2138,
      "Ġdes": 2139,
      "me": 2140,
      "view": 2141,
      "Ġwhile": 2142,
      "Ġexample": 2143,
      "address": 2144,
      "co": 2145,
      "ĠAl": 2146,
      "....": 2147,
      "ife": 2148,
      "ified": 2149,
      "cent": 2150,
      "andle": 2151,
      "dition": 2152,
      "Ġdevelop": 2153,
      "apt": 2154,
      "IL": 2155,
      "Ġsur": 2156,
      "Ġdoes": 2157,
      "Of": 2158,
      "Ġsum": 2159,
      "span": 2160,
      "wn": 2161,
      "ĠWh": 2162,
      "*(": 2163,
      "Ġafter": 2164,
      "Val": 2165,
      ",\"": 2166,
      "New": 2167,
      "Ġcomple": 2168,
      "ten": 2169,
      "ough": 2170,
      "db": 2171,
      "cdot": 2172,
      "Message": 2173,
      "Log": 2174,
      "Ġpers": 2175,
      "page": 2176,
      "Ġbr": 2177,
      "Context": 2178,
      "Ġproble": 2179,
      ",$": 2180,
      "ets": 2181,
      "uffer": 2182,
      "ric": 2183,
      "ts": 2184,
      "link": 2185,
      "Ġgroup": 2186,
      "action": 2187,
      "Up": 2188,
      "Ġht": 2189,
      "Ġher": 2190,
      "ING": 2191,
      "Ġlength": 2192,
      "result": 2193,
      "Ġimport": 2194,
      "ware": 2195,
      ":\"": 2196,
      "olum": 2197,
      "Ġevery": 2198,
      "urs": 2199,
      "Pr": 2200,
      "())": 2201,
      "back": 2202,
      "state": 2203,
      "ags": 2204,
      "âĢĵ": 2205,
      "xf": 2206,
      "ĠWe": 2207,
      "FFFFFF": 2208,
      "////////": 2209,
      "On": 2210,
      "ism": 2211,
      "rop": 2212,
      "BC": 2213,
      "transform": 2214,
      "reak": 2215,
      "iled": 2216,
      "(*": 2217,
      "ui": 2218,
      "Form": 2219,
      "Ġcenter": 2220,
      "start": 2221,
      "Field": 2222,
      "(\\": 2223,
      "Ġsign": 2224,
      "Ġcould": 2225,
      "<-": 2226,
      "ever": 2227,
      "OP": 2228,
      "go": 2229,
      "ache": 2230,
      "ouble": 2231,
      "Ġent": 2232,
      "ession": 2233,
      "ustom": 2234,
      "ides": 2235,
      "Ġappro": 2236,
      "ateg": 2237,
      "EX": 2238,
      "try": 2239,
      "ization": 2240,
      "reen": 2241,
      "');": 2242,
      "day": 2243,
      "vir": 2244,
      "open": 2245,
      "amily": 2246,
      "ision": 2247,
      "User": 2248,
      "org": 2249,
      "Ġcre": 2250,
      "lear": 2251,
      "Def": 2252,
      "IR": 2253,
      "ĉĉĉĉĉĉ": 2254,
      "num": 2255,
      "ĠString": 2256,
      "DC": 2257,
      "mit": 2258,
      "Ġfact": 2259,
      "Ġtri": 2260,
      "Ġprocess": 2261,
      "Count": 2262,
      "ĠZ": 2263,
      "ience": 2264,
      "elf": 2265,
      "Ġschool": 2266,
      "html": 2267,
      "Ġcurrent": 2268,
      "dr": 2269,
      "ression": 2270,
      "(:": 2271,
      "aining": 2272,
      "Ġar": 2273,
      "='": 2274,
      "uch": 2275,
      "Ġsolid": 2276,
      "Ġinformation": 2277,
      "ins": 2278,
      "ormal": 2279,
      "As": 2280,
      "Ġsame": 2281,
      "ology": 2282,
      "Ġhelp": 2283,
      "Ġeven": 2284,
      "Ġdisc": 2285,
      "mand": 2286,
      "ically": 2287,
      "dev": 2288,
      "pan": 2289,
      "Node": 2290,
      "_,": 2291,
      "Ġinclud": 2292,
      "Result": 2293,
      "ĠSh": 2294,
      "Ġfield": 2295,
      "other": 2296,
      "etail": 2297,
      "field": 2298,
      "display": 2299,
      "ences": 2300,
      "ĠTo": 2301,
      "CL": 2302,
      "/**": 2303,
      "code": 2304,
      "Ġprocedure": 2305,
      "vel": 2306,
      "lobal": 2307,
      "abled": 2308,
      ":-": 2309,
      "ĠAn": 2310,
      "OD": 2311,
      "EB": 2312,
      "Ġdifferent": 2313,
      "pha": 2314,
      "\".": 2315,
      "YP": 2316,
      "config": 2317,
      "Ġyears": 2318,
      "point": 2319,
      "Ġsee": 2320,
      "ero": 2321,
      "Create": 2322,
      "sin": 2323,
      "ptions": 2324,
      "================================": 2325,
      "Ġbl": 2326,
      "lay": 2327,
      "Color": 2328,
      "Ġshow": 2329,
      "roll": 2330,
      "iver": 2331,
      "check": 2332,
      "Ġmethod": 2333,
      "Ġlog": 2334,
      "Response": 2335,
      "Ġwrit": 2336,
      "dir": 2337,
      "dec": 2338,
      "http": 2339,
      "Ġinclude": 2340,
      "angu": 2341,
      "ning": 2342,
      "Group": 2343,
      "Ġpar": 2344,
      "iter": 2345,
      "ĠĠĠĠĠĠĠĠĠĠĠĠĠĠĠĠĠĠĠĠĠĠĠĠĠĠĠĠĠĠĠĠĠĠĠĠĠĠĠĠĠĠĠ": 2346,
      "arrow": 2347,
      "ape": 2348,
      "ared": 2349,
      "ister": 2350,
      "json": 2351,
      "Ġcheck": 2352,
      "This": 2353,
      "bb": 2354,
      "aid": 2355,
      "uration": 2356,
      "title": 2357,
      "View": 2358,
      "ness": 2359,
      "xc": 2360,
      "lection": 2361,
      "From": 2362,
      "Ġresp": 2363,
      "IB": 2364,
      "Write": 2365,
      "Ġdi": 2366,
      "length": 2367,
      "bol": 2368,
      "Ġdirect": 2369,
      "ĠSome": 2370,
      "An": 2371,
      "plication": 2372,
      "this": 2373,
      "olean": 2374,
      "US": 2375,
      "Str": 2376,
      "xff": 2377,
      "fa": 2378,
      "TER": 2379,
      "Ġrep": 2380,
      "Ġvalues": 2381,
      "math": 2382,
      "header": 2383,
      "pected": 2384,
      "oon": 2385,
      "active": 2386,
      "QU": 2387,
      "Ġworld": 2388,
      "Ġinput": 2389,
      "valid": 2390,
      "Ġincre": 2391,
      "Ġbecause": 2392,
      "Ġbefore": 2393,
      "\\).": 2394,
      "cos": 2395,
      "acter": 2396,
      "ension": 2397,
      "til": 2398,
      "anag": 2399,
      "+=": 2400,
      "Ð¾": 2401,
      "SC": 2402,
      "!(": 2403,
      "ĠInt": 2404,
      "ually": 2405,
      "Ġview": 2406,
      "Ġsk": 2407,
      "ĠLicense": 2408,
      "hip": 2409,
      "Ġtechn": 2410,
      "Ġmon": 2411,
      "select": 2412,
      "Ġlocal": 2413,
      "OL": 2414,
      "><": 2415,
      "Ġfr": 2416,
      "ĠBo": 2417,
      "nect": 2418,
      "ats": 2419,
      "ler": 2420,
      "ypes": 2421,
      "boxed": 2422,
      "Ġart": 2423,
      ".,": 2424,
      "Ref": 2425,
      "false": 2426,
      "ivers": 2427,
      "Status": 2428,
      "itive": 2429,
      "ĠResult": 2430,
      "uthor": 2431,
      "Ġblock": 2432,
      "Ġexper": 2433,
      "Parameter": 2434,
      "Ġref": 2435,
      "Ġamount": 2436,
      "){": 2437,
      "DA": 2438,
      "Attribute": 2439,
      "Bo": 2440,
      "Ġlarg": 2441,
      "otal": 2442,
      "Ġoper": 2443,
      "acity": 2444,
      "Ġallow": 2445,
      "ds": 2446,
      "wner": 2447,
      "Ġindex": 2448,
      "Ġrun": 2449,
      "Is": 2450,
      ";}": 2451,
      "ĠWrite": 2452,
      "sert": 2453,
      "Ġshe": 2454,
      "Ġhigh": 2455,
      "EL": 2456,
      "ources": 2457,
      "Qu": 2458,
      "ingle": 2459,
      "{\"": 2460,
      "Ġinv": 2461,
      "radius": 2462,
      "ointer": 2463,
      "Ð°": 2464,
      "Sub": 2465,
      "no": 2466,
      "Ġwell": 2467,
      "ables": 2468,
      "ML": 2469,
      "ĠĠĠĠĊ": 2470,
      "fe": 2471,
      "utes": 2472,
      "len": 2473,
      "meric": 2474,
      "viron": 2475,
      "flow": 2476,
      "ret": 2477,
      "side": 2478,
      "da": 2479,
      "do": 2480,
      "parent": 2481,
      "Ġcondition": 2482,
      "ember": 2483,
      "Ab": 2484,
      "Ġpass": 2485,
      "Ġmed": 2486,
      "lot": 2487,
      "aking": 2488,
      "Ġwater": 2489,
      "rec": 2490,
      "','": 2491,
      "Code": 2492,
      "ĠAs": 2493,
      "Ġtem": 2494,
      "rel": 2495,
      "Loc": 2496,
      "With": 2497,
      "âĢĶ": 2498,
      "pace": 2499,
      "ĠÎ": 2500,
      "Ġplan": 2501,
      "ymbol": 2502,
      ">>": 2503,
      "ocument": 2504,
      "older": 2505,
      "Ġrange": 2506,
      "AE": 2507,
      "UB": 2508,
      "call": 2509,
      "iddle": 2510,
      "Ġcontin": 2511,
      "Ġposs": 2512,
      "TH": 2513,
      "net": 2514,
      "ivity": 2515,
      "Ġelement": 2516,
      "Ġorg": 2517,
      "Ġexpl": 2518,
      "\\\"": 2519,
      "ability": 2520,
      "Ð¸": 2521,
      "Ġoption": 2522,
      "Ġsecond": 2523,
      "Ġthose": 2524,
      "stract": 2525,
      "ribut": 2526,
      "ULL": 2527,
      "ency": 2528,
      ")$": 2529,
      "ĠHow": 2530,
      "proto": 2531,
      "down": 2532,
      "image": 2533,
      "Reg": 2534,
      "xb": 2535,
      "option": 2536,
      "Ġback": 2537,
      "Ġwithout": 2538,
      "az": 2539,
      "Ġnow": 2540,
      "][": 2541,
      "Ġmult": 2542,
      "Ġnon": 2543,
      "weight": 2544,
      "ception": 2545,
      "Ġext": 2546,
      "----------------------------------------------------------------": 2547,
      "Ġhum": 2548,
      "\",\"": 2549,
      "IO": 2550,
      "Ġunderstand": 2551,
      ",'": 2552,
      "Ġcommun": 2553,
      "book": 2554,
      "Ðµ": 2555,
      "Ġpartic": 2556,
      "ĠOn": 2557,
      "Address": 2558,
      "gy": 2559,
      "anguage": 2560,
      "Dis": 2561,
      "Wh": 2562,
      "Ġprivate": 2563,
      "Ġvoid": 2564,
      "escription": 2565,
      ":**": 2566,
      "Ġduring": 2567,
      "Ġextract": 2568,
      "Not": 2569,
      "ross": 2570,
      "Ġlearn": 2571,
      "ather": 2572,
      "ux": 2573,
      "come": 2574,
      "itor": 2575,
      "flex": 2576,
      "BB": 2577,
      "ished": 2578,
      "Ġmat": 2579,
      "Ġpat": 2580,
      "off": 2581,
      "Ġcoun": 2582,
      "pc": 2583,
      "inc": 2584,
      "ĠAdd": 2585,
      "Ġmap": 2586,
      "ĠĠĠĠĠĠĠĠĠĠĠĠĠĠĠĠĠĠĠĠĠĠĠĠĠĠĠĠ": 2587,
      ")/": 2588,
      "arm": 2589,
      "Ġhist": 2590,
      "MS": 2591,
      "Ad": 2592,
      "PS": 2593,
      "Ġrg": 2594,
      "olv": 2595,
      "rect": 2596,
      "ĠEND": 2597,
      "Ġway": 2598,
      "../": 2599,
      "Ġbeing": 2600,
      "Ġcreate": 2601,
      "Client": 2602,
      "dep": 2603,
      "aces": 2604,
      "df": 2605,
      "de": 2606,
      "Ġmov": 2607,
      "{}": 2608,
      "ĠAmeric": 2609,
      "Ġlast": 2610,
      "Ġuser": 2611,
      "odes": 2612,
      "Map": 2613,
      "XX": 2614,
      "itional": 2615,
      "Class": 2616,
      "Ġhref": 2617,
      "____": 2618,
      "menu": 2619,
      "UM": 2620,
      "bs": 2621,
      "Ġhealth": 2622,
      "IV": 2623,
      "imit": 2624,
      "Ġbool": 2625,
      "ands": 2626,
      "akes": 2627,
      "ots": 2628,
      "Ġfollowing": 2629,
      "vironment": 2630,
      "Ġequation": 2631,
      "></": 2632,
      "ifier": 2633,
      "py": 2634,
      ",-": 2635,
      "ks": 2636,
      "wrap": 2637,
      "Base": 2638,
      "Ġnext": 2639,
      "ride": 2640,
      "Ġproblem": 2641,
      "ason": 2642,
      "oin": 2643,
      "js": 2644,
      "Ġeffect": 2645,
      "package": 2646,
      "ided": 2647,
      "ĠInd": 2648,
      "UE": 2649,
      "Ġcr": 2650,
      "Ġresearch": 2651,
      "Ġstyle": 2652,
      "Ġopen": 2653,
      "Ġident": 2654,
      "Rec": 2655,
      "xe": 2656,
      "imum": 2657,
      "Ġtry": 2658,
      "Ġter": 2659,
      "xy": 2660,
      "Ġcour": 2661,
      "Ġwithin": 2662,
      "ĠDO": 2663,
      "iler": 2664,
      "Ġbuild": 2665,
      "Ġorder": 2666,
      "child": 2667,
      "SP": 2668,
      "ctx": 2669,
      "\"]": 2670,
      "Ġdown": 2671,
      "END": 2672,
      "Ġcode": 2673,
      "late": 2674,
      "SD": 2675,
      "Ġsupport": 2676,
      "comp": 2677,
      "met": 2678,
      "Ġcalled": 2679,
      "miss": 2680,
      "ĠSc": 2681,
      "Ġpath": 2682,
      "style": 2683,
      "Ġprogram": 2684,
      "adow": 2685,
      "ik": 2686,
      "icro": 2687,
      "ename": 2688,
      "aa": 2689,
      "ĠCl": 2690,
      "Inst": 2691,
      "Inter": 2692,
      "gen": 2693,
      "iod": 2694,
      "Line": 2695,
      "\"></": 2696,
      "ived": 2697,
      "Ġatt": 2698,
      "ATE": 2699,
      "eft": 2700,
      "icy": 2701,
      "Trans": 2702,
      "uss": 2703,
      "args": 2704,
      "Ġthree": 2705,
      "ÑĤ": 2706,
      "node": 2707,
      "Ġear": 2708,
      "bove": 2709,
      "plate": 2710,
      "Ġsmall": 2711,
      "ination": 2712,
      "MM": 2713,
      "CD": 2714,
      "Ġcalcul": 2715,
      "Ġcommon": 2716,
      "ances": 2717,
      "Ġstep": 2718,
      "Ġperson": 2719,
      "container": 2720,
      "mo": 2721,
      "Ġown": 2722,
      "Ġprodu": 2723,
      "ety": 2724,
      "ond": 2725,
      "Ġpop": 2726,
      "ln": 2727,
      "light": 2728,
      "idden": 2729,
      "Date": 2730,
      "Event": 2731,
      "gt": 2732,
      "orage": 2733,
      "ules": 2734,
      "Ġcar": 2735,
      "ords": 2736,
      "lease": 2737,
      "Ġlook": 2738,
      "().": 2739,
      "Ġarea": 2740,
      "Pos": 2741,
      "ouse": 2742,
      "---": 2743,
      "Ġeng": 2744,
      "Ġsom": 2745,
      "Ġaccess": 2746,
      "umn": 2747,
      "ERR": 2748,
      "ĠCALL": 2749,
      "=\"${": 2750,
      "Ġabove": 2751,
      "Ed": 2752,
      "omain": 2753,
      "uid": 2754,
      "default": 2755,
      "Ġconsider": 2756,
      "tle": 2757,
      "Ġdeter": 2758,
      "ĠAss": 2759,
      "ICAg": 2760,
      "del": 2761,
      "No": 2762,
      "ah": 2763,
      "Ġmuch": 2764,
      "sy": 2765,
      ")(": 2766,
      "ope": 2767,
      "Ġunit": 2768,
      "pert": 2769,
      "\\),": 2770,
      "overn": 2771,
      "II": 2772,
      "tps": 2773,
      "Ġvery": 2774,
      "alpha": 2775,
      "any": 2776,
      "oot": 2777,
      "Output": 2778,
      "Ġcent": 2779,
      "Ġday": 2780,
      "cs": 2781,
      "TT": 2782,
      "solute": 2783,
      "rl": 2784,
      "Arg": 2785,
      "base": 2786,
      "loy": 2787,
      "Service": 2788,
      "aj": 2789,
      "Ġvis": 2790,
      "Ġless": 2791,
      "Float": 2792,
      "Ġquest": 2793,
      "ĠTest": 2794,
      "ĠRE": 2795,
      "ĠState": 2796,
      "aterial": 2797,
      "INT": 2798,
      "spec": 2799,
      "tegr": 2800,
      "Ġplay": 2801,
      "Ġlow": 2802,
      "But": 2803,
      "ithub": 2804,
      "vail": 2805,
      "\"$": 2806,
      "Ġorig": 2807,
      "ital": 2808,
      "Ġagain": 2809,
      "from": 2810,
      "Ġgen": 2811,
      "Server": 2812,
      "!!!!": 2813,
      "Ġpower": 2814,
      "DDDDDDDD": 2815,
      "ava": 2816,
      "ĠYou": 2817,
      "Ġshift": 2818,
      "YPE": 2819,
      "buf": 2820,
      "itch": 2821,
      "ocial": 2822,
      "way": 2823,
      "Ġitem": 2824,
      "plement": 2825,
      "idual": 2826,
      "Ġmade": 2827,
      "Ġproperty": 2828,
      "\"`": 2829,
      "Ġlead": 2830,
      "eturn": 2831,
      "api": 2832,
      "Comp": 2833,
      "Ġinc": 2834,
      "place": 2835,
      "\"\"\"": 2836,
      "ĠDo": 2837,
      "ĠBy": 2838,
      "ification": 2839,
      "util": 2840,
      "Ġcell": 2841,
      "ĠIs": 2842,
      "Ġpage": 2843,
      "Ġdel": 2844,
      "Ġrequest": 2845,
      "Element": 2846,
      "FFF": 2847,
      "~~": 2848,
      "\"/>": 2849,
      "nection": 2850,
      "ron": 2851,
      "Version": 2852,
      "CM": 2853,
      "mat": 2854,
      "AF": 2855,
      "**:": 2856,
      "Var": 2857,
      "ffff": 2858,
      ")]": 2859,
      ">=": 2860,
      "gg": 2861,
      "KE": 2862,
      "Ġevent": 2863,
      "ored": 2864,
      "clus": 2865,
      "ique": 2866,
      "ference": 2867,
      "Ġoverride": 2868,
      "}$.": 2869,
      "procedure": 2870,
      "lish": 2871,
      "Ġser": 2872,
      "\"),": 2873,
      "Ġauto": 2874,
      "Op": 2875,
      "ait": 2876,
      "cp": 2877,
      "Ġsaid": 2878,
      "static": 2879,
      "char": 2880,
      "ĉĉĉĉĉĉĉ": 2881,
      "Ġsrc": 2882,
      "Ġchildren": 2883,
      "Ġarray": 2884,
      "ftware": 2885,
      "Ġpresent": 2886,
      "none": 2887,
      "Ġocc": 2888,
      "ium": 2889,
      "Ġrequired": 2890,
      "Ġcomput": 2891,
      "CB": 2892,
      "[\"": 2893,
      "ulation": 2894,
      "utine": 2895,
      "Ġcirc": 2896,
      "attribute": 2897,
      "ponent": 2898,
      "xd": 2899,
      "Ġnull": 2900,
      "xa": 2901,
      "Table": 2902,
      "Ġlife": 2903,
      "Lo": 2904,
      "fff": 2905,
      "We": 2906,
      "ively": 2907,
      "ibr": 2908,
      "ted": 2909,
      "last": 2910,
      "elete": 2911,
      "Ġenc": 2912,
      "DF": 2913,
      "Ġmark": 2914,
      "CA": 2915,
      "github": 2916,
      "Ġequal": 2917,
      "ĠĠĠĠĠĠĠĠĠĠĠĠĠĠĠĠĠĠĠĠĠĠĠĠĠĠĠ": 2918,
      "ither": 2919,
      ")),": 2920,
      "Ġob": 2921,
      "xx": 2922,
      "Acc": 2923,
      "Ġnumbers": 2924,
      "End": 2925,
      "Ġbody": 2926,
      "oration": 2927,
      "roid": 2928,
      "Ġwant": 2929,
      "Fr": 2930,
      "Am": 2931,
      "plit": 2932,
      "If": 2933,
      "eff": 2934,
      "Host": 2935,
      "OUT": 2936,
      "img": 2937,
      "Ġdefault": 2938,
      "status": 2939,
      "Ġfloat": 2940,
      "Col": 2941,
      "Ġtake": 2942,
      "ĠIm": 2943,
      "Ġhere": 2944,
      "App": 2945,
      "ĠOF": 2946,
      "Ġproduct": 2947,
      "aster": 2948,
      "ained": 2949,
      "fun": 2950,
      "ĊĠĠĠĠĊ": 2951,
      "version": 2952,
      "ĉĉĉĉĉĉĉĉĉ": 2953,
      "ĠBut": 2954,
      "ĠSo": 2955,
      "AME": 2956,
      "ogma": 2957,
      "Ġmet": 2958,
      ")).": 2959,
      "ped": 2960,
      "token": 2961,
      "quence": 2962,
      "Ġest": 2963,
      "EM": 2964,
      "ru": 2965,
      "################################": 2966,
      "perties": 2967,
      "Ð½": 2968,
      "earch": 2969,
      "Ġprote": 2970,
      "Ġspe": 2971,
      "aus": 2972,
      "shadow": 2973,
      "opyright": 2974,
      "Ġdid": 2975,
      "init": 2976,
      "ĠLet": 2977,
      ")))": 2978,
      "etwork": 2979,
      "ĠInteger": 2980,
      "Ġdev": 2981,
      "mb": 2982,
      "src": 2983,
      "Ġbel": 2984,
      "ĠThey": 2985,
      "Ġstop": 2986,
      "array": 2987,
      "\"/": 2988,
      "ixed": 2989,
      "tim": 2990,
      "BA": 2991,
      "ĠCON": 2992,
      "Ġfore": 2993,
      "$_": 2994,
      "Ġrgba": 2995,
      "WWWWWWWW": 2996,
      "urity": 2997,
      "âĤ": 2998,
      "AW": 2999,
      "ĠErr": 3000,
      "rior": 3001,
      "ptr": 3002,
      "stit": 3003,
      "Ðķ": 3004,
      "Ġide": 3005,
      "FI": 3006,
      "float": 3007,
      "part": 3008,
      "Ġmemory": 3009,
      "Ġhttp": 3010,
      "SSSSSSSS": 3011,
      "center": 3012,
      "Ġdim": 3013,
      "irt": 3014,
      "output": 3015,
      "ĠOR": 3016,
      "ories": 3017,
      "Pl": 3018,
      "Ġmight": 3019,
      "atory": 3020,
      "andler": 3021,
      "ately": 3022,
      "Ġbook": 3023,
      "Ġinitial": 3024,
      "bf": 3025,
      "Ġtoken": 3026,
      "\").": 3027,
      "grid": 3028,
      "ending": 3029,
      "exp": 3030,
      "Equal": 3031,
      "peat": 3032,
      "Ġgrow": 3033,
      "inition": 3034,
      "Ġpoints": 3035,
      "Start": 3036,
      "Ġexternal": 3037,
      "ĠSystem": 3038,
      "request": 3039,
      "Ġchange": 3040,
      "Ġaround": 3041,
      "Ġok": 3042,
      "uments": 3043,
      "Number": 3044,
      "Ġoutput": 3045,
      "ctor": 3046,
      "Ġmiddle": 3047,
      "inary": 3048,
      "OS": 3049,
      "Check": 3050,
      "imal": 3051,
      ",:": 3052,
      "object": 3053,
      "module": 3054,
      "bg": 3055,
      "sec": 3056,
      "has": 3057,
      "ĠAt": 3058,
      "ought": 3059,
      "tings": 3060,
      "www": 3061,
      "Us": 3062,
      "EF": 3063,
      "yc": 3064,
      "ÑĢ": 3065,
      "ĠSe": 3066,
      "Ġcost": 3067,
      "afe": 3068,
      "CON": 3069,
      "Ġchang": 3070,
      "man": 3071,
      "Ġloc": 3072,
      "write": 3073,
      "Manag": 3074,
      "Input": 3075,
      "model": 3076,
      "iving": 3077,
      "OF": 3078,
      "ĠValue": 3079,
      "Ġansw": 3080,
      ")-": 3081,
      "Ġmember": 3082,
      "assert": 3083,
      "Ġrece": 3084,
      "LL": 3085,
      "ĠMoon": 3086,
      "lev": 3087,
      "Ġintent": 3088,
      "Ġtarget": 3089,
      "ends": 3090,
      "ior": 3091,
      "post": 3092,
      "Image": 3093,
      "Model": 3094,
      "Ġcount": 3095,
      "Dr": 3096,
      "Vector": 3097,
      "section": 3098,
      "Ġself": 3099,
      "\">>": 3100,
      "los": 3101,
      "gress": 3102,
      "Ġtable": 3103,
      "Ġpract": 3104,
      "vailable": 3105,
      "Ġstudy": 3106,
      "All": 3107,
      "req": 3108,
      "Ġmessage": 3109,
      "with": 3110,
      "Window": 3111,
      "ident": 3112,
      "ters": 3113,
      "uck": 3114,
      "Ġcover": 3115,
      "Ġpossible": 3116,
      "ally": 3117,
      "ĠPr": 3118,
      "Ġrad": 3119,
      "rid": 3120,
      "ugg": 3121,
      "INE": 3122,
      "Resource": 3123,
      "media": 3124,
      "alle": 3125,
      "<<\"": 3126,
      "rib": 3127,
      "Ġfocus": 3128,
      "circ": 3129,
      "atab": 3130,
      "Ġurl": 3131,
      "icle": 3132,
      "lean": 3133,
      "abs": 3134,
      "Ġsuccess": 3135,
      "local": 3136,
      "Ñģ": 3137,
      "control": 3138,
      "mine": 3139,
      "Ġdistribut": 3140,
      "Ġadv": 3141,
      "ĠčĊ": 3142,
      "Ġincluding": 3143,
      "Ġcert": 3144,
      "sim": 3145,
      "Ġspecific": 3146,
      "ĉĊ": 3147,
      "VER": 3148,
      "land": 3149,
      "UP": 3150,
      "ours": 3151,
      "ĠComp": 3152,
      "first": 3153,
      "ĠĠĠĠĠĠĠĠĠĠĠĠĠĠĠĠĠĠĠĠĠĠĠĠĠĠĠĠĠĠĠĠĠĠĠĠĠĠĠĠĠĠĠĠ": 3154,
      "ogle": 3155,
      "Fl": 3156,
      "main": 3157,
      "dp": 3158,
      "Ġindiv": 3159,
      "Property": 3160,
      "ls": 3161,
      "Ġke": 3162,
      "olution": 3163,
      "context": 3164,
      "BE": 3165,
      "Length": 3166,
      "prov": 3167,
      "ĠNULL": 3168,
      "AY": 3169,
      "Ġconf": 3170,
      "NO": 3171,
      "iff": 3172,
      "Ġcontext": 3173,
      "Ġold": 3174,
      "Source": 3175,
      "ĠAr": 3176,
      "focus": 3177,
      "Call": 3178,
      "Action": 3179,
      "ead": 3180,
      "pm": 3181,
      "ĉfor": 3182,
      "PI": 3183,
      "su": 3184,
      "Ġsince": 3185,
      "ĠDogma": 3186,
      "Ġcontrol": 3187,
      "Ġweb": 3188,
      "SI": 3189,
      "({": 3190,
      "iversity": 3191,
      "asc": 3192,
      "Ġfinal": 3193,
      "Ġcap": 3194,
      "oto": 3195,
      "Ġmean": 3196,
      "Ġredu": 3197,
      "ways": 3198,
      "aging": 3199,
      "Ġorgan": 3200,
      "Content": 3201,
      "ĠFFFF": 3202,
      "vest": 3203,
      "Ġgood": 3204,
      "ĠThese": 3205,
      "$\"": 3206,
      "Ġplace": 3207,
      "Ġtitle": 3208,
      "Ġsource": 3209,
      "Ġarr": 3210,
      ")}": 3211,
      "```": 3212,
      "Ġet": 3213,
      "kn": 3214,
      "Ġoften": 3215,
      "Ġimportant": 3216,
      "tx": 3217,
      "omen": 3218,
      "FFFFFFFFFFFFFFFFFFFFFFFFFFFFFFFF": 3219,
      "Ġproject": 3220,
      "Ġreport": 3221,
      "Ġlanguage": 3222,
      "Ġexist": 3223,
      "Ġsw": 3224,
      "Ġterms": 3225,
      "ven": 3226,
      "Ġhuman": 3227,
      ">.": 3228,
      "Ġmodel": 3229,
      "alk": 3230,
      "ASS": 3231,
      "Ġcare": 3232,
      "Ġbox": 3233,
      "Ġanal": 3234,
      "quare": 3235,
      "(@": 3236,
      "orth": 3237,
      "ĠIS": 3238,
      "Ġbas": 3239,
      "ĠPl": 3240,
      "Read": 3241,
      "orn": 3242,
      "ilar": 3243,
      "Dir": 3244,
      "ĠData": 3245,
      "Ġconfig": 3246,
      "atural": 3247,
      "sender": 3248,
      "WWW": 3249,
      "Per": 3250,
      "ients": 3251,
      "Now": 3252,
      "Ver": 3253,
      "andard": 3254,
      "cb": 3255,
      "olume": 3256,
      "ĠĠĠĠĠĠĠĠĠĠĠĠĠĠĠĠĠĠĠĠĠĠĠĠĠĠĠĠĠĠĠĠĠĠĠĠĠĠĠĠĠĠĠĠĠĠĠĠĠĠĠĠĠĠĠĠĠĠĠĠĠĠĠĠ": 3257,
      "Lex": 3258,
      "izing": 3259,
      "ĠList": 3260,
      "Ġbus": 3261,
      "Stream": 3262,
      "Ġfa": 3263,
      "Ġmatch": 3264,
      "Command": 3265,
      "Ġanother": 3266,
      "Ġbreak": 3267,
      "Ġindividual": 3268,
      "run": 3269,
      "quad": 3270,
      "Ġdon": 3271,
      "Ġcharacter": 3272,
      "Block": 3273,
      "ently": 3274,
      "Ap": 3275,
      "Ġbytes": 3276,
      "endif": 3277,
      "Ġselect": 3278,
      "Ġfood": 3279,
      "ĠTHE": 3280,
      "ording": 3281,
      "ä¸": 3282,
      "Ġhim": 3283,
      "css": 3284,
      "Ġcult": 3285,
      "null": 3286,
      "Ptr": 3287,
      "ebug": 3288,
      "}}{": 3289,
      "Ġsubject": 3290,
      "(!": 3291,
      "ane": 3292,
      "tra": 3293,
      "]$": 3294,
      "Ġpres": 3295,
      "lg": 3296,
      "Char": 3297,
      "etails": 3298,
      "unit": 3299,
      "%%%%%%%%": 3300,
      "card": 3301,
      "annel": 3302,
      "ĠST": 3303,
      "ĠFr": 3304,
      "}/": 3305,
      "Ġsever": 3306,
      "ĠAnd": 3307,
      "PL": 3308,
      "SQ": 3309,
      "Ġlaw": 3310,
      "ĉvar": 3311,
      "ids": 3312,
      "Ġinternal": 3313,
      "andom": 3314,
      "-\\": 3315,
      "<=": 3316,
      "ĠAp": 3317,
      "apter": 3318,
      "ury": 3319,
      "Ġcourse": 3320,
      "else": 3321,
      "Point": 3322,
      "Ġversion": 3323,
      "soft": 3324,
      "Ġconstant": 3325,
      "(&": 3326,
      "ĠBoolean": 3327,
      "temp": 3328,
      "Ġaccount": 3329,
      "So": 3330,
      "inding": 3331,
      "nder": 3332,
      "Ġbeh": 3333,
      "signed": 3334,
      "Ġrest": 3335,
      "bool": 3336,
      "And": 3337,
      "oh": 3338,
      "Ġinterest": 3339,
      "imary": 3340,
      "bit": 3341,
      "Ġthink": 3342,
      "GL": 3343,
      "iple": 3344,
      "routine": 3345,
      "Ġmain": 3346,
      "ĠCal": 3347,
      "ĠAll": 3348,
      "ibility": 3349,
      "inst": 3350,
      "lick": 3351,
      "Ġbase": 3352,
      "Ass": 3353,
      "Ġknown": 3354,
      "ync": 3355,
      "sk": 3356,
      "Ġformat": 3357,
      "transition": 3358,
      "Ġdig": 3359,
      "byte": 3360,
      "space": 3361,
      "family": 3362,
      "Ġempty": 3363,
      "names": 3364,
      "omic": 3365,
      "PRO": 3366,
      "CF": 3367,
      "PAR": 3368,
      "Run": 3369,
      "alf": 3370,
      "Ġintro": 3371,
      "Ġdefined": 3372,
      "-->": 3373,
      "ention": 3374,
      "Ġvalid": 3375,
      "lin": 3376,
      "Ġtre": 3377,
      "ĠTHEN": 3378,
      "Ġmeans": 3379,
      "ready": 3380,
      "resh": 3381,
      "Lexer": 3382,
      "ek": 3383,
      "DDD": 3384,
      "cer": 3385,
      "SH": 3386,
      "cm": 3387,
      "irection": 3388,
      "Ġbased": 3389,
      "Ġbro": 3390,
      "aving": 3391,
      "<!": 3392,
      "['": 3393,
      "ended": 3394,
      "ĠDef": 3395,
      "ĠTrue": 3396,
      "DO": 3397,
      "Ġver": 3398,
      "uro": 3399,
      "Ðĺ": 3400,
      "Ġpercent": 3401,
      "CP": 3402,
      "erefore": 3403,
      "Exp": 3404,
      "Ġside": 3405,
      "Ġconcept": 3406,
      "Ġrelated": 3407,
      "ĉĠĠĠ": 3408,
      "imation": 3409,
      "Ġflex": 3410,
      "mm": 3411,
      "Ġgovern": 3412,
      "GER": 3413,
      "Act": 3414,
      "Ġrow": 3415,
      "}\"": 3416,
      "Ġpost": 3417,
      "_;": 3418,
      "Ġcorrect": 3419,
      "uster": 3420,
      "Ġdem": 3421,
      "Module": 3422,
      "erc": 3423,
      "ĠNo": 3424,
      "}(": 3425,
      "asure": 3426,
      "Ġret": 3427,
      "imate": 3428,
      "Ġappe": 3429,
      "ationship": 3430,
      "Par": 3431,
      "Ġrepresent": 3432,
      "ĉcase": 3433,
      "Spec": 3434,
      "atabase": 3435,
      "Ġperform": 3436,
      "oke": 3437,
      "nb": 3438,
      "kind": 3439,
      "ĠĠĠĠĠĠĠĠĠĠĠĠĠĠĠĠĠĠĠĠĠ": 3440,
      "Ġnormal": 3441,
      "Ġhold": 3442,
      "Az": 3443,
      "FL": 3444,
      "Ġlen": 3445,
      "printf": 3446,
      "amb": 3447,
      "Ġtransform": 3448,
      "Ġsec": 3449,
      "Ġpot": 3450,
      "Ġprof": 3451,
      "aim": 3452,
      "Ġsolar": 3453,
      "Ġimp": 3454,
      "------------": 3455,
      "ursor": 3456,
      "Ġstill": 3457,
      "Ġanswer": 3458,
      "Ð¾Ð": 3459,
      "aps": 3460,
      "rict": 3461,
      "ĠWhen": 3462,
      "Ġsit": 3463,
      "Ġopt": 3464,
      "ABLE": 3465,
      "pol": 3466,
      "ledge": 3467,
      "ĠName": 3468,
      "vious": 3469,
      "<%@": 3470,
      "server": 3471,
      "###": 3472,
      "thers": 3473,
      "Ġgl": 3474,
      "Update": 3475,
      "build": 3476,
      "ograph": 3477,
      "vis": 3478,
      "Ġcho": 3479,
      "Ġtimes": 3480,
      "ialog": 3481,
      "ilename": 3482,
      "Function": 3483,
      "BD": 3484,
      "element": 3485,
      "ogn": 3486,
      "hem": 3487,
      "SY": 3488,
      "Ġland": 3489,
      "HT": 3490,
      "Ġterm": 3491,
      "(.": 3492,
      "Ġhand": 3493,
      "lished": 3494,
      "navbar": 3495,
      "next": 3496,
      "Ġapp": 3497,
      "idence": 3498,
      "format": 3499,
      "impl": 3500,
      "Rem": 3501,
      "Button": 3502,
      "BU": 3503,
      "Ġeither": 3504,
      "after": 3505,
      "Ġeff": 3506,
      "ival": 3507,
      "TION": 3508,
      "ird": 3509,
      "verse": 3510,
      "ling": 3511,
      "Method": 3512,
      "Query": 3513,
      "Ġcopy": 3514,
      "NE": 3515,
      "arsh": 3516,
      "ĠAd": 3517,
      "AQ": 3518,
      "energy": 3519,
      "ORT": 3520,
      "ĠEn": 3521,
      "ĠFalse": 3522,
      "Ġavailable": 3523,
      "LOC": 3524,
      "Ġbal": 3525,
      "Ġcomplex": 3526,
      "Default": 3527,
      "assword": 3528,
      "Ġleg": 3529,
      "ĠID": 3530,
      "stru": 3531,
      "NY": 3532,
      "ï¼": 3533,
      "ounds": 3534,
      "oms": 3535,
      "Ġwhe": 3536,
      "inline": 3537,
      "jsp": 3538,
      "''": 3539,
      "Dec": 3540,
      "tep": 3541,
      "Ġsl": 3542,
      "Pol": 3543,
      "irtual": 3544,
      "ators": 3545,
      "Ġenvironment": 3546,
      "AAAAAAAAAAAAAAAA": 3547,
      "alleng": 3548,
      "=\\": 3549,
      "ĠCO": 3550,
      "PO": 3551,
      "Ġdesc": 3552,
      "ANT": 3553,
      "CR": 3554,
      "Ġconditions": 3555,
      "ĠMod": 3556,
      "ITE": 3557,
      "ĠDe": 3558,
      "Build": 3559,
      "now": 3560,
      "AND": 3561,
      "quality": 3562,
      "AV": 3563,
      "NS": 3564,
      "Ġdouble": 3565,
      "Ġinline": 3566,
      "Ġul": 3567,
      "mail": 3568,
      "Ġserv": 3569,
      "ĉĠ": 3570,
      ";-": 3571,
      "query": 3572,
      "Ġris": 3573,
      "Ġprob": 3574,
      "leq": 3575,
      "Ġspace": 3576,
      "\"><": 3577,
      "Ġmaterial": 3578,
      "mark": 3579,
      "sv": 3580,
      "TEGER": 3581,
      "acy": 3582,
      "drop": 3583,
      "ÐĺÐ": 3584,
      "Label": 3585,
      "iness": 3586,
      "ĉt": 3587,
      "Ġtreat": 3588,
      "Ġfin": 3589,
      "Ġcur": 3590,
      "oo": 3591,
      "ĉmy": 3592,
      "Right": 3593,
      "////////////////": 3594,
      "ÐķÐ": 3595,
      "ĠPh": 3596,
      "dim": 3597,
      "pose": 3598,
      "Ġins": 3599,
      "Num": 3600,
      "icrosoft": 3601,
      "host": 3602,
      "ves": 3603,
      "doc": 3604,
      "deg": 3605,
      "ĠCont": 3606,
      "tn": 3607,
      "Buffer": 3608,
      "ql": 3609,
      "Ġaut": 3610,
      "cf": 3611,
      "Tem": 3612,
      "ĠSince": 3613,
      "tag": 3614,
      "current": 3615,
      "Ġresults": 3616,
      "Ġeduc": 3617,
      "utions": 3618,
      "Ġlarge": 3619,
      "Box": 3620,
      "iles": 3621,
      "Ġapply": 3622,
      "Ġinterface": 3623,
      "Ġlevel": 3624,
      "Ġleast": 3625,
      "Ġprom": 3626,
      "ĠTO": 3627,
      "moz": 3628,
      "ĠFF": 3629,
      "atures": 3630,
      "Null": 3631,
      "ĠEng": 3632,
      "TO": 3633,
      "Valid": 3634,
      "Ġintegr": 3635,
      "foot": 3636,
      "por": 3637,
      "omet": 3638,
      "Be": 3639,
      "Ġlight": 3640,
      "VAL": 3641,
      "apping": 3642,
      "Order": 3643,
      "Ġens": 3644,
      "=$": 3645,
      "typ": 3646,
      "EA": 3647,
      "gether": 3648,
      "ocol": 3649,
      "Ġlink": 3650,
      "outh": 3651,
      "Ġhistory": 3652,
      "Ġfree": 3653,
      "hing": 3654,
      "Ġperiod": 3655,
      "filter": 3656,
      "Ġiss": 3657,
      "Ġoriginal": 3658,
      "kg": 3659,
      "di": 3660,
      "ration": 3661,
      "GR": 3662,
      "]);": 3663,
      "clusion": 3664,
      "ĠDis": 3665,
      "ATION": 3666,
      "Ġfour": 3667,
      "It": 3668,
      "mem": 3669,
      "Ġendif": 3670,
      "Ġamong": 3671,
      "Ġphys": 3672,
      "STR": 3673,
      "Ġang": 3674,
      "Em": 3675,
      "update": 3676,
      "plied": 3677,
      "Ġgre": 3678,
      "alloc": 3679,
      "agn": 3680,
      "fmt": 3681,
      "Ġstatus": 3682,
      "just": 3683,
      "Msg": 3684,
      "asing": 3685,
      "Ġgu": 3686,
      "env": 3687,
      "ysis": 3688,
      "mary": 3689,
      "std": 3690,
      "^\\": 3691,
      "Ġnode": 3692,
      "MO": 3693,
      "grad": 3694,
      "ication": 3695,
      "Ġhead": 3696,
      "Ġdays": 3697,
      "Enc": 3698,
      "Ġelect": 3699,
      "Ġunderstanding": 3700,
      "lood": 3701,
      "Ġassoci": 3702,
      "Ġwhite": 3703,
      "Options": 3704,
      "ĠCreate": 3705,
      "Ġtoo": 3706,
      "Ġsolve": 3707,
      "').": 3708,
      "icult": 3709,
      "ecess": 3710,
      "ho": 3711,
      "urch": 3712,
      "ULT": 3713,
      "PR": 3714,
      "Exception": 3715,
      "acc": 3716,
      "https": 3717,
      "Ġexpress": 3718,
      "FO": 3719,
      "Ġstd": 3720,
      "Ġemp": 3721,
      "ram": 3722,
      "bytes": 3723,
      "ĠOut": 3724,
      "acing": 3725,
      "MT": 3726,
      "Instance": 3727,
      "equ": 3728,
      "create": 3729,
      "ĠUniversity": 3730,
      "Ġparameter": 3731,
      "Ġprior": 3732,
      "Ġzero": 3733,
      "Ġclear": 3734,
      "core": 3735,
      "ĠId": 3736,
      "Ġclose": 3737,
      "Ġteach": 3738,
      "estamp": 3739,
      "ired": 3740,
      "........": 3741,
      "Ġpay": 3742,
      "oy": 3743,
      "ething": 3744,
      "ĠAmerican": 3745,
      "ategory": 3746,
      "Sup": 3747,
      "client": 3748,
      "ips": 3749,
      "MAX": 3750,
      "Ġstory": 3751,
      "+\\": 3752,
      "ills": 3753,
      "My": 3754,
      "product": 3755,
      "ĠOr": 3756,
      "<>": 3757,
      "dat": 3758,
      "urther": 3759,
      "Params": 3760,
      "target": 3761,
      "ental": 3762,
      "Header": 3763,
      "ians": 3764,
      "EQ": 3765,
      "cell": 3766,
      "ĠWhat": 3767,
      "Ġsignific": 3768,
      "ĠĊĊ": 3769,
      "Ġsym": 3770,
      "});": 3771,
      ")\"": 3772,
      "Ident": 3773,
      "pack": 3774,
      "plicit": 3775,
      "CS": 3776,
      "Ġtextbook": 3777,
      "TYPE": 3778,
      "Ġcertain": 3779,
      "Ġeq": 3780,
      "ges": 3781,
      "istic": 3782,
      "(--": 3783,
      "Ġeas": 3784,
      "[:": 3785,
      "ĠAcc": 3786,
      "ariable": 3787,
      "ĠThere": 3788,
      ")\\": 3789,
      "uy": 3790,
      "Ġtogether": 3791,
      "Ġinvolv": 3792,
      "oper": 3793,
      "ĠHowever": 3794,
      "ai": 3795,
      "straint": 3796,
      "ilt": 3797,
      "make": 3798,
      "Ġfew": 3799,
      "Ġdest": 3800,
      "Ġagainst": 3801,
      "Ġdirectly": 3802,
      "ãģ": 3803,
      "known": 3804,
      "Ðŀ": 3805,
      "Ġlabel": 3806,
      "Ġwriting": 3807,
      "aut": 3808,
      "Rep": 3809,
      "NAME": 3810,
      "Abstract": 3811,
      "ula": 3812,
      "Ġinf": 3813,
      "Ġdise": 3814,
      "verage": 3815,
      "ches": 3816,
      "}$,": 3817,
      "Max": 3818,
      "ci": 3819,
      "Ġfri": 3820,
      "Ġsocial": 3821,
      "Ġenergy": 3822,
      "Pre": 3823,
      "Mode": 3824,
      "ĉb": 3825,
      "Ġalong": 3826,
      "ral": 3827,
      "Ġalloc": 3828,
      "Ġrot": 3829,
      "Ġprovide": 3830,
      "Ġothers": 3831,
      "fs": 3832,
      "Let": 3833,
      "lim": 3834,
      "SO": 3835,
      "ordin": 3836,
      "Ġplanet": 3837,
      "oding": 3838,
      "olve": 3839,
      "Ġtypes": 3840,
      "uture": 3841,
      "]),": 3842,
      "Hash": 3843,
      "oud": 3844,
      "idget": 3845,
      "Ġcrit": 3846,
      "ĠĠĠĠĠĠĠĠĠĠĠĠĠĠĠĠĠĠĠĠĠĠ": 3847,
      "Ġkeep": 3848,
      "Ġden": 3849,
      "ĠType": 3850,
      "Ġparent": 3851,
      "\\(\\": 3852,
      "IND": 3853,
      "Ġknowledge": 3854,
      "Click": 3855,
      "thing": 3856,
      "Ġant": 3857,
      "Gener": 3858,
      "Dep": 3859,
      "Ġrecord": 3860,
      "Ġpositive": 3861,
      "Ġvarious": 3862,
      "Ġrelative": 3863,
      "pb": 3864,
      "number": 3865,
      "Ġput": 3866,
      "Ġbetter": 3867,
      "Ġbi": 3868,
      "change": 3869,
      "Ġsat": 3870,
      "ĠReg": 3871,
      "thon": 3872,
      "ATA": 3873,
      "Ġalready": 3874,
      "Control": 3875,
      "hash": 3876,
      "=~": 3877,
      "PC": 3878,
      "Format": 3879,
      "Ġparticular": 3880,
      "valu": 3881,
      ".âĢĿ": 3882,
      "Ġtrad": 3883,
      "Ġdesign": 3884,
      "sup": 3885,
      "step": 3886,
      "Ġuntil": 3887,
      "DIR": 3888,
      "ZE": 3889,
      "Ġlit": 3890,
      "Ġhapp": 3891,
      "BF": 3892,
      "aption": 3893,
      "ae": 3894,
      "Ġlimit": 3895,
      "SET": 3896,
      "board": 3897,
      "ws": 3898,
      "xs": 3899,
      "iev": 3900,
      "DEF": 3901,
      "Ġpub": 3902,
      "eline": 3903,
      "disabled": 3904,
      "Ġalways": 3905,
      "\"))": 3906,
      "{-": 3907,
      "Ġaction": 3908,
      "Ġnatural": 3909,
      ".*": 3910,
      "Ġturn": 3911,
      "Manager": 3912,
      "rypt": 3913,
      "Hel": 3914,
      "Ġsingle": 3915,
      "Ġfre": 3916,
      "SON": 3917,
      "png": 3918,
      "ibrary": 3919,
      "expected": 3920,
      "event": 3921,
      "arning": 3922,
      "Ġlay": 3923,
      "ĠDr": 3924,
      "[$": 3925,
      "ze": 3926,
      "adata": 3927,
      "Mem": 3928,
      "lt": 3929,
      "ĠCan": 3930,
      "ĠCheck": 3931,
      "Ġabsolute": 3932,
      "tributes": 3933,
      "aced": 3934,
      ")%": 3935,
      "<:": 3936,
      "Ġred": 3937,
      "Ġben": 3938,
      "rightarrow": 3939,
      "Ġsubroutine": 3940,
      "DS": 3941,
      "ĠGener": 3942,
      "icient": 3943,
      "Ġdevelopment": 3944,
      "ajor": 3945,
      "real": 3946,
      "Ġspecial": 3947,
      "Ġport": 3948,
      "Ġmonth": 3949,
      "comm": 3950,
      "ump": 3951,
      "RC": 3952,
      "Owner": 3953,
      "Ġthought": 3954,
      "arge": 3955,
      "source": 3956,
      "Ġfail": 3957,
      "Ġquestion": 3958,
      "rist": 3959,
      "inner": 3960,
      "Ġur": 3961,
      "Cal": 3962,
      "Ġrespon": 3963,
      "interface": 3964,
      "ĠTop": 3965,
      "ĠTrans": 3966,
      "ĠFile": 3967,
      "evel": 3968,
      "yy": 3969,
      "ĠINTEGER": 3970,
      "AGE": 3971,
      "Require": 3972,
      "wards": 3973,
      "Ġsay": 3974,
      "Ġrate": 3975,
      "tool": 3976,
      "\"}.": 3977,
      "att": 3978,
      "SION": 3979,
      "Ġbottom": 3980,
      "ological": 3981,
      "GE": 3982,
      "ĠSub": 3983,
      "Ġimplement": 3984,
      "Ġsomething": 3985,
      "Ġfunc": 3986,
      "Ġchalleng": 3987,
      "ights": 3988,
      "Ġyoung": 3989,
      "Ġrole": 3990,
      "Ġnames": 3991,
      "Ġbest": 3992,
      "Ġsequence": 3993,
      "Ġmodule": 3994,
      "Do": 3995,
      "%,": 3996,
      "Dev": 3997,
      "iting": 3998,
      "Ġseveral": 3999,
      "ĠUse": 4000,
      "irectory": 4001,
      "Ther": 4002,
      "[|": 4003,
      "Ġfunctions": 4004,
      "VM": 4005,
      "Ġmsg": 4006,
      "gl": 4007,
      "Ġobt": 4008,
      "ii": 4009,
      "AX": 4010,
      "Ġelements": 4011,
      "Ġsolution": 4012,
      "Ġge": 4013,
      "ORM": 4014,
      "export": 4015,
      "amed": 4016,
      "ĠCompiler": 4017,
      "Ġdue": 4018,
      "Oper": 4019,
      "ĠUp": 4020,
      "tmp": 4021,
      "Ġage": 4022,
      "Ġalign": 4023,
      "Ġgreat": 4024,
      "ĠInter": 4025,
      "params": 4026,
      "Ġbecome": 4027,
      "Filter": 4028,
      "fix": 4029,
      "'(": 4030,
      "au": 4031,
      "Ġnecess": 4032,
      "Access": 4033,
      "ales": 4034,
      "Ġassert": 4035,
      "Ġinit": 4036,
      "Ph": 4037,
      "Ġoptional": 4038,
      "Ġassum": 4039,
      "ĠUs": 4040,
      "Ġfamily": 4041,
      "Select": 4042,
      "wise": 4043,
      "âĶ": 4044,
      "Ġpush": 4045,
      "<!--": 4046,
      "Files": 4047,
      "aff": 4048,
      "tex": 4049,
      "{(": 4050,
      "stream": 4051,
      "Util": 4052,
      "Ġresponse": 4053,
      "Ġconstruct": 4054,
      "NT": 4055,
      "Ġmill": 4056,
      "scale": 4057,
      "using": 4058,
      ":\"\\": 4059,
      "ilities": 4060,
      "atio": 4061,
      "iqu": 4062,
      "offset": 4063,
      "rs": 4064,
      "uple": 4065,
      "Ġnear": 4066,
      "Ġdocument": 4067,
      "Ġsoftware": 4068,
      "Ġkind": 4069,
      "Ġstatic": 4070,
      "oll": 4071,
      "._": 4072,
      "arp": 4073,
      "'}": 4074,
      "Sec": 4075,
      "'.": 4076,
      "ones": 4077,
      "Ġinfl": 4078,
      "Ġpointer": 4079,
      "Ġsimilar": 4080,
      "Ġer": 4081,
      "aws": 4082,
      "Ġwhether": 4083,
      "Ġmus": 4084,
      "Ġdetermine": 4085,
      "Therefore": 4086,
      "ferred": 4087,
      "Ġprovided": 4088,
      "\\):": 4089,
      "ering": 4090,
      "Ġexamples": 4091,
      "ideo": 4092,
      "Web": 4093,
      "Ġcaus": 4094,
      "istry": 4095,
      "LS": 4096,
      "ĠĠĠĠĠĠĠĠĠĠĠĠĠĠĠĠĠĠĠĠĠĠĠĠĠĠĠĠĠĠĠ": 4097,
      "iction": 4098,
      "roller": 4099,
      "na": 4100,
      "Ġexec": 4101,
      "theta": 4102,
      "lem": 4103,
      "Ġhome": 4104,
      ",*)": 4105,
      "ĊĊĊĊ": 4106,
      "ĠStart": 4107,
      "Ġpotential": 4108,
      "Ġdistance": 4109,
      "Ext": 4110,
      "BO": 4111,
      "etailed": 4112,
      "cast": 4113,
      "dt": 4114,
      "Ġpo": 4115,
      "show": 4116,
      "ica": 4117,
      "ires": 4118,
      "]).": 4119,
      "Ġio": 4120,
      "ĠUnited": 4121,
      "ĉp": 4122,
      "Ġauthor": 4123,
      "column": 4124,
      "ĠRem": 4125,
      "Ġhours": 4126,
      "java": 4127,
      "ĠText": 4128,
      "ĠTR": 4129,
      "respon": 4130,
      "Off": 4131,
      "rm": 4132,
      "Ġapproach": 4133,
      "IST": 4134,
      "ised": 4135,
      "ĉs": 4136,
      "ĊĉĊ": 4137,
      "ounter": 4138,
      "Ġmatrix": 4139,
      "Ġease": 4140,
      "Account": 4141,
      "Here": 4142,
      "Ġfull": 4143,
      "Min": 4144,
      "}^{": 4145,
      "Script": 4146,
      "Task": 4147,
      "alt": 4148,
      "Ġinstance": 4149,
      "Ġthings": 4150,
      "Process": 4151,
      "Ġmaking": 4152,
      "First": 4153,
      "aper": 4154,
      "]::": 4155,
      "ponents": 4156,
      "Ġmanag": 4157,
      "ĠStates": 4158,
      "Ġwomen": 4159,
      "Empty": 4160,
      "google": 4161,
      "Ġstandard": 4162,
      "erg": 4163,
      "RITE": 4164,
      "Ġtyp": 4165,
      "Ġneg": 4166,
      "Ġder": 4167,
      "close": 4168,
      "Left": 4169,
      "auto": 4170,
      "ITY": 4171,
      "Ġtw": 4172,
      "Nd": 4173,
      "Ġseem": 4174,
      "vec": 4175,
      "Ġsquare": 4176,
      "Handle": 4177,
      "ACK": 4178,
      "ULE": 4179,
      "Ġscient": 4180,
      "Ids": 4181,
      "hidden": 4182,
      "SA": 4183,
      "Ġearly": 4184,
      "refix": 4185,
      "Ġdiff": 4186,
      "ĠTherefore": 4187,
      "tocol": 4188,
      "Page": 4189,
      "ITH": 4190,
      "Ġrespect": 4191,
      "posed": 4192,
      "mathbb": 4193,
      "Next": 4194,
      "level": 4195,
      "Ġways": 4196,
      "Ġavoid": 4197,
      "area": 4198,
      "Names": 4199,
      "MD": 4200,
      "Style": 4201,
      "ina": 4202,
      "idx": 4203,
      "ĠSee": 4204,
      "ribe": 4205,
      "ĠCH": 4206,
      "Ġlater": 4207,
      "uggest": 4208,
      "aring": 4209,
      "Ġcannot": 4210,
      "ntax": 4211,
      "Ġexpression": 4212,
      "ĠReturn": 4213,
      "ude": 4214,
      "mission": 4215,
      "Ġcontract": 4216,
      "footer": 4217,
      "ETER": 4218,
      "leg": 4219,
      "home": 4220,
      "Ġglobal": 4221,
      "AAA": 4222,
      "heet": 4223,
      "Ġecon": 4224,
      ".)": 4225,
      "ocket": 4226,
      "Ġservice": 4227,
      "vm": 4228,
      "fn": 4229,
      "WOR": 4230,
      "neg": 4231,
      "Ġimage": 4232,
      "Top": 4233,
      "ites": 4234,
      "Ġsimple": 4235,
      "tab": 4236,
      "ĠWith": 4237,
      "irm": 4238,
      "/(": 4239,
      "oring": 4240,
      ">]": 4241,
      "integer": 4242,
      "repeat": 4243,
      "Ġrights": 4244,
      "Ġinvest": 4245,
      "cr": 4246,
      "ĉmargin": 4247,
      "meta": 4248,
      "Ġshort": 4249,
      "Ġinher": 4250,
      "Height": 4251,
      "Ġsignificant": 4252,
      "ries": 4253,
      "Ġindic": 4254,
      "ional": 4255,
      "IES": 4256,
      "pts": 4257,
      "pg": 4258,
      "Part": 4259,
      "ially": 4260,
      "Ġupdate": 4261,
      "ĠĠĠĠĠĠĠĠĊ": 4262,
      "Ġunique": 4263,
      "Ġcontinue": 4264,
      "Ġdraw": 4265,
      "bose": 4266,
      "Ġnarr": 4267,
      "Target": 4268,
      "hell": 4269,
      "ring": 4270,
      "Ġtopic": 4271,
      "struction": 4272,
      "ĠFont": 4273,
      "actions": 4274,
      "Ġhig": 4275,
      "Ġprice": 4276,
      "wrapper": 4277,
      "@{": 4278,
      "Ġneeds": 4279,
      "handle": 4280,
      "Body": 4281,
      "aken": 4282,
      "Ġfar": 4283,
      "ART": 4284,
      "<%=": 4285,
      "aph": 4286,
      "LT": 4287,
      "Fe": 4288,
      "Ġexact": 4289,
      "term": 4290,
      "cho": 4291,
      "Open": 4292,
      "ARR": 4293,
      "ĠAb": 4294,
      "ĠCopyright": 4295,
      "gn": 4296,
      "Ġprec": 4297,
      "ene": 4298,
      "ĠRec": 4299,
      "inv": 4300,
      "RT": 4301,
      "case": 4302,
      "Total": 4303,
      "atal": 4304,
      "Ġspeed": 4305,
      "Ġdiscuss": 4306,
      "ĠLeft": 4307,
      "istance": 4308,
      "Width": 4309,
      "Ġdone": 4310,
      "parse": 4311,
      "Ġexplo": 4312,
      "Ġtag": 4313,
      "ster": 4314,
      "culate": 4315,
      "Row": 4316,
      "Ġgeneral": 4317,
      "Ġair": 4318,
      "Inv": 4319,
      ":\\": 4320,
      "utable": 4321,
      "une": 4322,
      "Ġgovernment": 4323,
      "cmd": 4324,
      "root": 4325,
      "arshal": 4326,
      "Ġareas": 4327,
      "Amount": 4328,
      "items": 4329,
      "Ġess": 4330,
      "ynam": 4331,
      "Co": 4332,
      "ĉm": 4333,
      "delta": 4334,
      "Ġspecies": 4335,
      "hedule": 4336,
      "OK": 4337,
      "ARG": 4338,
      "ards": 4339,
      "AMETER": 4340,
      "roy": 4341,
      "Types": 4342,
      "Ġandroid": 4343,
      "Ġcreated": 4344,
      "QQ": 4345,
      "abor": 4346,
      "Ġgrid": 4347,
      "uilt": 4348,
      "Ġfiles": 4349,
      ":(": 4350,
      "Ġsy": 4351,
      "Ġfeel": 4352,
      "ambda": 4353,
      "tries": 4354,
      "Ġprotect": 4355,
      "property": 4356,
      "Ġtool": 4357,
      "oney": 4358,
      "ohn": 4359,
      "ACE": 4360,
      "andatory": 4361,
      "Ġcalculate": 4362,
      "Ġpast": 4363,
      "SSS": 4364,
      "options": 4365,
      "Ġlearning": 4366,
      "Ġacross": 4367,
      "yles": 4368,
      "fty": 4369,
      "hema": 4370,
      "aries": 4371,
      "po": 4372,
      "ĉd": 4373,
      "Ġthrow": 4374,
      "fc": 4375,
      "FDFD": 4376,
      "ĠBe": 4377,
      "Ġdetailed": 4378,
      "ached": 4379,
      "Cmd": 4380,
      "Ġwhy": 4381,
      "aves": 4382,
      "ĠAND": 4383,
      "tt": 4384,
      "Ġbound": 4385,
      "Ġtranslate": 4386,
      "ieve": 4387,
      "MC": 4388,
      "ĠINT": 4389,
      "Bl": 4390,
      "Kind": 4391,
      "ustr": 4392,
      "ÐĲ": 4393,
      "ably": 4394,
      "Ġconnect": 4395,
      "ĠTe": 4396,
      "ĠStr": 4397,
      "****************************************************************": 4398,
      "Ġsides": 4399,
      "ERROR": 4400,
      "hy": 4401,
      "epar": 4402,
      "kens": 4403,
      "Handler": 4404,
      "atform": 4405,
      "Port": 4406,
      "ĠĠĠĊ": 4407,
      "erson": 4408,
      "anch": 4409,
      "Ġload": 4410,
      "LIC": 4411,
      "Ġtask": 4412,
      "Ġundef": 4413,
      "achine": 4414,
      "txt": 4415,
      "Ġblack": 4416,
      "Ġscreen": 4417,
      "Met": 4418,
      "Prov": 4419,
      "Ġes": 4420,
      "vc": 4421,
      "Ġpress": 4422,
      "ĠRead": 4423,
      "xl": 4424,
      "Ġcommand": 4425,
      "Ġhard": 4426,
      "Ġconvert": 4427,
      "ĉbackground": 4428,
      "Ġpattern": 4429,
      "One": 4430,
      "esh": 4431,
      "Ð»": 4432,
      "[<": 4433,
      "ĠParam": 4434,
      "ceed": 4435,
      "ĠMed": 4436,
      "Ar": 4437,
      "opacity": 4438,
      "ĠĠĠĠĠĠĠĠĠĠĠĠĠĠĠĠĠĠĠĠĠĠĠĠĠĠĠĠĠĠĠĠĠĠĠĠ": 4439,
      "Ġmajor": 4440,
      "[_": 4441,
      "ĠOne": 4442,
      "infty": 4443,
      "Ġmen": 4444,
      "GT": 4445,
      "Del": 4446,
      "Ġgrad": 4447,
      "Ġdeg": 4448,
      "Ġcontinu": 4449,
      "*,": 4450,
      "Position": 4451,
      "Ġscale": 4452,
      "ĊĠĠĊ": 4453,
      "Sender": 4454,
      "ĀĀ": 4455,
      "Te": 4456,
      "arnings": 4457,
      "Current": 4458,
      "GB": 4459,
      "PH": 4460,
      "API": 4461,
      "Integer": 4462,
      "unk": 4463,
      "Ġchanges": 4464,
      "Ġvert": 4465,
      "åı": 4466,
      "Ġfam": 4467,
      "Ġrelationship": 4468,
      "Ġroot": 4469,
      "ĠĠĠĠĠĠĠĠĠĠĠĠĠĠĠĠĠĠĠĠĠĠĠĠĠĠ": 4470,
      "draw": 4471,
      "Ġpack": 4472,
      "PT": 4473,
      "urope": 4474,
      "MB": 4475,
      "ĉĠĠĠĠ": 4476,
      "Ġra": 4477,
      "Ġpair": 4478,
      "hs": 4479,
      "\"}": 4480,
      "raft": 4481,
      "Ġdistributed": 4482,
      "total": 4483,
      "Ġconcepts": 4484,
      "Ġcome": 4485,
      "istory": 4486,
      "Ġexpected": 4487,
      "incip": 4488,
      "URL": 4489,
      "dropdown": 4490,
      "Ġspecified": 4491,
      "ME": 4492,
      "RR": 4493,
      "ĠDE": 4494,
      "Exec": 4495,
      "Edit": 4496,
      "ĠCol": 4497,
      "Ġupon": 4498,
      "Fact": 4499,
      "Ġflow": 4500,
      "ured": 4501,
      "Try": 4502,
      "Ġexit": 4503,
      "Ġexam": 4504,
      "Local": 4505,
      "service": 4506,
      "Ġsystems": 4507,
      "Last": 4508,
      "ĠLog": 4509,
      "Ġmiss": 4510,
      "VS": 4511,
      "}{\\": 4512,
      "panel": 4513,
      "Ġword": 4514,
      "Ġneeded": 4515,
      "Ġsays": 4516,
      "Work": 4517,
      "find": 4518,
      "comes": 4519,
      "beta": 4520,
      "[{": 4521,
      "Link": 4522,
      "ĠâĨ": 4523,
      "ops": 4524,
      "Ġassociated": 4525,
      "Ġspan": 4526,
      "Ġdimension": 4527,
      "Ġvector": 4528,
      "Ġgraph": 4529,
      "Tag": 4530,
      "Step": 4531,
      "ught": 4532,
      ")*(": 4533,
      "geq": 4534,
      "Ġcontains": 4535,
      "Ġcases": 4536,
      "iding": 4537,
      ".(": 4538,
      "score": 4539,
      "redential": 4540,
      "essages": 4541,
      "UD": 4542,
      "contract": 4543,
      "ĠNational": 4544,
      "IX": 4545,
      "ĉfont": 4546,
      "Ġvirtual": 4547,
      "De": 4548,
      "Ġask": 4549,
      "stitute": 4550,
      "Ġfmt": 4551,
      "Ġserver": 4552,
      "ĠChrist": 4553,
      "gener": 4554,
      "bc": 4555,
      "ison": 4556,
      "Ġdiscover": 4557,
      "FILE": 4558,
      "Ġdisease": 4559,
      "ĠThen": 4560,
      "Ġmaint": 4561,
      "ĠRef": 4562,
      "ECT": 4563,
      "ĠQu": 4564,
      "Ġmass": 4565,
      "binary": 4566,
      "ÐĲÐ": 4567,
      "Lay": 4568,
      "Ġcommunity": 4569,
      "Child": 4570,
      "Ġhy": 4571,
      "Ġpolit": 4572,
      "Ġrespons": 4573,
      "Ġcollect": 4574,
      "ilit": 4575,
      "Ġtriangle": 4576,
      "tree": 4577,
      "}=": 4578,
      "Ġgroups": 4579,
      "ĠOp": 4580,
      "Ġweight": 4581,
      "ĠĠĠĠĠĠĠĠĠĠĠĠĠĠĠĠĠĠĠĠĠĠĠĠĠ": 4582,
      "Bytes": 4583,
      "ĠAct": 4584,
      "Option": 4585,
      "second": 4586,
      "Ġstrong": 4587,
      "itory": 4588,
      "Ġlev": 4589,
      "Entry": 4590,
      "ĠPer": 4591,
      "mode": 4592,
      "frame": 4593,
      "umb": 4594,
      "Ġaverage": 4595,
      "Ġrisk": 4596,
      "amples": 4597,
      "Ġnothing": 4598,
      "Ġvariables": 4599,
      "agma": 4600,
      "Return": 4601,
      "Ġoffer": 4602,
      "FEFE": 4603,
      "How": 4604,
      "project": 4605,
      "Ġfuture": 4606,
      "illed": 4607,
      "isf": 4608,
      "though": 4609,
      "Ġaffect": 4610,
      "Each": 4611,
      "ĠArray": 4612,
      "Ġowner": 4613,
      "Ġbenef": 4614,
      "ĠâĪ": 4615,
      "ĠPRO": 4616,
      "Ġir": 4617,
      "TW": 4618,
      "Ġonce": 4619,
      "ĠANY": 4620,
      "Ġfilter": 4621,
      "Ġsuggest": 4622,
      "xml": 4623,
      "values": 4624,
      "ĠDep": 4625,
      "iation": 4626,
      "_)": 4627,
      "images": 4628,
      "Ġvariable": 4629,
      "ipp": 4630,
      "rot": 4631,
      "Ġresources": 4632,
      "Ġstudies": 4633,
      "igation": 4634,
      "Range": 4635,
      "ĠAc": 4636,
      "Ġlik": 4637,
      "Ġteam": 4638,
      "WN": 4639,
      "Ġsure": 4640,
      "Ġactiv": 4641,
      "Ġmultiple": 4642,
      "URE": 4643,
      "Given": 4644,
      "fd": 4645,
      "!!!!!!!!": 4646,
      "riter": 4647,
      "Parameters": 4648,
      "Ġproblems": 4649,
      "ĠPy": 4650,
      "Url": 4651,
      "phi": 4652,
      "@_;": 4653,
      "Print": 4654,
      "tems": 4655,
      "ternational": 4656,
      "Ġexc": 4657,
      "Ġcountry": 4658,
      "Frame": 4659,
      "Ġla": 4660,
      "Ġestab": 4661,
      "What": 4662,
      "dx": 4663,
      "===": 4664,
      "ij": 4665,
      "Location": 4666,
      "Ġbit": 4667,
      "WS": 4668,
      "only": 4669,
      "Ġsent": 4670,
      "âĶĢ": 4671,
      "Ð²": 4672,
      "Ġapplic": 4673,
      "ĠNone": 4674,
      "Ġlinear": 4675,
      "process": 4676,
      "lying": 4677,
      "Len": 4678,
      "Ġitems": 4679,
      "require": 4680,
      "UI": 4681,
      "omin": 4682,
      "\\,": 4683,
      "Ġcells": 4684,
      "True": 4685,
      "ensor": 4686,
      "Ġmaximum": 4687,
      "Matrix": 4688,
      "Ġcoll": 4689,
      "ĉĠĠĠĠĠĠĠĠ": 4690,
      "duction": 4691,
      "Ġlines": 4692,
      "Colum": 4693,
      "ĠLo": 4694,
      "ĠFrom": 4695,
      "%%%": 4696,
      "Ġcolumn": 4697,
      "Root": 4698,
      "Ġfund": 4699,
      "Ġcause": 4700,
      "ĠWidth": 4701,
      "Ġprevent": 4702,
      "nbsp": 4703,
      "Args": 4704,
      "orig": 4705,
      "rows": 4706,
      "can": 4707,
      "jl": 4708,
      "ĠNot": 4709,
      "Ġbehav": 4710,
      "Ġfurther": 4711,
      "seq": 4712,
      "Ġtim": 4713,
      "]=": 4714,
      "Ġsoci": 4715,
      "Ġwords": 4716,
      "Ġoptions": 4717,
      "anger": 4718,
      "Ġdet": 4719,
      "ĠCo": 4720,
      "pop": 4721,
      "Ġjson": 4722,
      "Can": 4723,
      "addr": 4724,
      "Ġimpact": 4725,
      "Ġargs": 4726,
      ",âĢĿ": 4727,
      "Ġgive": 4728,
      "reed": 4729,
      "ĠError": 4730,
      "Ġblood": 4731,
      "ĠThat": 4732,
      "Ġmar": 4733,
      "Down": 4734,
      "Ġlittle": 4735,
      "BL": 4736,
      "***": 4737,
      "peated": 4738,
      "Ġparameters": 4739,
      "PRE": 4740,
      "Ġmeasure": 4741,
      "overrightarrow": 4742,
      "response": 4743,
      "Ġworking": 4744,
      "Ġconsum": 4745,
      "HR": 4746,
      "Ġable": 4747,
      "modal": 4748,
      "NA": 4749,
      "bed": 4750,
      "imals": 4751,
      "ĠGod": 4752,
      "anced": 4753,
      "ca": 4754,
      "izer": 4755,
      "flag": 4756,
      "eral": 4757,
      "Ġjob": 4758,
      "Ġprevious": 4759,
      "ĠKey": 4760,
      "Level": 4761,
      "]]": 4762,
      "Ġlate": 4763,
      "agon": 4764,
      "Ġtoday": 4765,
      "Ġmembers": 4766,
      "cat": 4767,
      "Ġsn": 4768,
      "Font": 4769,
      "elling": 4770,
      "CTION": 4771,
      "global": 4772,
      "non": 4773,
      "Ġlevels": 4774,
      "template": 4775,
      "mult": 4776,
      "Ġinstead": 4777,
      "ERC": 4778,
      "ĠArg": 4779,
      "files": 4780,
      "ĉi": 4781,
      "Ġdetermin": 4782,
      "ĠEurope": 4783,
      "empty": 4784,
      "ĠTime": 4785,
      "iences": 4786,
      "Windows": 4787,
      "ycle": 4788,
      "Ġevents": 4789,
      "ĠREAL": 4790,
      "ĉint": 4791,
      "chan": 4792,
      "ãĤ": 4793,
      "amount": 4794,
      "atives": 4795,
      "Ġreason": 4796,
      "Ġphr": 4797,
      "holder": 4798,
      "yl": 4799,
      "hel": 4800,
      "nal": 4801,
      "HO": 4802,
      "ĠPar": 4803,
      "common": 4804,
      "Tree": 4805,
      "WD": 4806,
      "Ġworks": 4807,
      "Ġnetwork": 4808,
      "Ġfac": 4809,
      "ĠEnd": 4810,
      "LIB": 4811,
      "^-": 4812,
      "¡Ð": 4813,
      "Ġcustom": 4814,
      "sign": 4815,
      "atter": 4816,
      "elt": 4817,
      "Rule": 4818,
      "ĠForm": 4819,
      "ĠFirst": 4820,
      "{'": 4821,
      "tri": 4822,
      "Ġtemper": 4823,
      "oking": 4824,
      "like": 4825,
      "ĠUS": 4826,
      "custom": 4827,
      "Ġhalf": 4828,
      "selves": 4829,
      "Ġpur": 4830,
      "Custom": 4831,
      "hens": 4832,
      "Ġenough": 4833,
      "MAKE": 4834,
      "leep": 4835,
      "Symbol": 4836,
      "where": 4837,
      "Ġseg": 4838,
      "ellow": 4839,
      "ĠBase": 4840,
      "UTF": 4841,
      "range": 4842,
      "Ġcolle": 4843,
      "ÑĮ": 4844,
      "Ã©": 4845,
      "Â»": 4846,
      "Ġstructure": 4847,
      "Ġhaving": 4848,
      "command": 4849,
      "NOT": 4850,
      "Ġsuff": 4851,
      "ĠÏ": 4852,
      "Find": 4853,
      "ifying": 4854,
      "ney": 4855,
      "~~~~": 4856,
      "Connection": 4857,
      "escriptor": 4858,
      "Ġresource": 4859,
      "zz": 4860,
      "Ġimm": 4861,
[...]
